node {
  name: "net_input"
  op: "Placeholder"
  attr {
    key: "dtype"
    value {
      type: DT_FLOAT
    }
  }
}
node {
  name: "Weights"
  op: "Const"
  attr {
    key: "dtype"
    value {
      type: DT_FLOAT
    }
  }
  attr {
    key: "value"
    value {
      tensor {
        dtype: DT_FLOAT
        tensor_shape {
          dim {
            size: 784
          }
          dim {
            size: 10
          }
        }
        tensor_content: "\000\000\000\000\000\000\000\000\000\000\000\000\000\000\000\000\000\000\000\000\000\000\000\000\000\000\000\000\000\000\000\000\000\000\000\000\000\000\000\000\000\000\000\000\000\000\000\000\000\000\000\000\000\000\000\000\000\000\000\000\000\000\000\000\000\000\000\000\000\000\000\000\000\000\000\000\000\000\000\000\000\000\000\000\000\000\000\000\000\000\000\000\000\000\000\000\000\000\000\000\000\000\000\000\000\000\000\000\000\000\000\000\000\000\000\000\000\000\000\000\000\000\000\000\000\000\000\000\000\000\000\000\000\000\000\000\000\000\000\000\000\000\000\000\000\000\000\000\000\000\000\000\000\000\000\000\000\000\000\000\000\000\000\000\000\000\000\000\000\000\000\000\000\000\000\000\000\000\000\000\000\000\000\000\000\000\000\000\000\000\000\000\000\000\000\000\000\000\000\000\000\000\000\000\000\000\000\000\000\000\000\000\000\000\000\000\000\000\000\000\000\000\000\000\000\000\000\000\000\000\000\000\000\000\000\000\000\000\000\000\000\000\000\000\000\000\000\000\000\000\000\000\000\000\000\000\000\000\000\000\000\000\000\000\000\000\000\000\000\000\000\000\000\000\000\000\000\000\000\000\000\000\000\000\000\000\000\000\000\000\000\000\000\000\000\000\000\000\000\000\000\000\000\000\000\000\000\000\000\000\000\000\000\000\000\000\000\000\000\000\000\000\000\000\000\000\000\000\000\000\000\000\000\000\000\000\000\000\000\000\000\000\000\000\000\000\000\000\000\000\000\000\000\000\000\000\000\000\000\000\000\000\000\000\000\000\000\000\000\000\000\000\000\000\000\000\000\000\000\000\000\000\000\000\000\000\000\000\000\000\000\000\000\000\000\000\000\000\000\000\000\000\000\000\000\000\000\000\000\000\000\000\000\000\000\000\000\000\000\000\000\000\000\000\000\000\000\000\000\000\000\000\000\000\000\000\000\000\000\000\000\000\000\000\000\000\000\000\000\000\000\000\000\000\000\000\000\000\000\000\000\000\000\000\000\000\000\000\000\000\000\000\000\000\000\000\000\000\000\000\300\"\252\265YX\217\266%wz\272B\ts\270^\022\243\273\207x\320\270xe\354;v\374\224\266e\2726\271\251\225v\272\222/<\267a\252\035\267?A\000\273\260\007\023\271RW3\274\001\331d\271i\357\200<\200\221-\267e6\311\271`0\007\273%\230\035\267\3515O\2636\242\0359Q\021y\267\350\205e\270L<-\265`M\206\270\003#:\265\215\302$\266\245\303i\2662 \322\264\360#\n\261\234-\3226\212\013&\265\362\003\031\266\022\373\346\262\325\0213\266\261.\370\262\022\256\333\263\302\327\033\264\000\000\000\000\000\000\000\000\000\000\000\000\000\000\000\000\000\000\000\000\000\000\000\000\000\000\000\000\000\000\000\000\000\000\000\000\000\000\000\000\000\000\000\000\000\000\000\000\000\000\000\000\000\000\000\000\000\000\000\000\000\000\000\000\000\000\000\000\000\000\000\000\000\000\000\000\000\000\000\000\000\000\000\000\000\000\000\000\000\000\000\000\000\000\000\000\000\000\000\000\000\000\000\000\000\000\000\000\000\000\000\000\000\000\000\000\000\000\000\000\000\000\000\000\000\000\000\000\000\000\000\000\000\000\000\000\000\000\000\000\000\000\000\000\000\000\000\000\000\000\000\000\000\000\000\000\000\000\000\000\000\000\000\000\000\000\000\000\000\000\000\000\000\000\000\000\000\000\000\000\000\000\000\000\000\000\000\000\000\000\000\000\000\000\000\000\000\000\000\000\000\000\000\000\000\000\000\000\000\000\000\000\000\000\000\000\000\000\000\000\000\000\000\000\000\000\000\000\000\000\000\000\000\000\000\000\000\000\000\000\000\000\000\000\000\000\000\000\000\000\000\000\000\000\000\000\000\000\000\000\000\000\000\000\000\000\000\000\000\000\000\000\000\000\000\000\000\000\000\000\000\000\000\000\000\000\000\000\000\000\000\000\000\000\000\000\000\000\000\000\000\000\000\000\000\000\000\000\000\000\000\000\000\000\000\000\000\000\000\000\000\000\000\000\000\000\000\000\000\000\000\000\000\000\000\000\000\000\000\000\000\000\000\000\000\000\000\000\000\000\000\000\000\000\000\000\000\000\000\000\000\000\000\000\000\000\000\000\000\000\000\000\000\000\000\000\000\000\000\000\000\000\000\000\000\000\000\000\000\000\000\000\000\000\000\000\000\000\000\000\000\000\000\000\000\000\000\000\000\000\000\000\000\000\000\000\000\000\000\000\000\000\000\000\000\000\000\000\000\000\000\000\000\000\000\000\000\000\000\000\000\000\000\000\000\000\000\000\000\000\000\000\000\000\000\000\000\000\000\000\000\000\000\000\000\000\000\000\000\000\000\000\000\000\000\000\000\000\000\000\000\000\000\000\000\000\000\000\000\000\000\000\000\000\000\000\000\000\000\000\000\000\000\000\000\000\000\000\000\000\000\000\000\000\000\000\000\000\000\000\000\000\000\000\000\000\000\000\000\000\000\000\000\000\000\000\000\000\000\000\000\000\000\000\000\000\000\000\000\000\000\000\000\000\000\000\000\000\000\000\000\000\000\000\000\000\000\000\000\000\000\000\000\000\000\000\000\000\000\000\000\000\000\000\000\000\000\000\000\000\000\000\000\000\000\000\000\000\000\000\000\000\000\000\000\000\000\000\000\000\000\000\000\000\000\000\000\000\000\000\000\000\000\000\000\000\000\000\000\000\000\000\000\000\000\000\000\000\000\000\000m(\260\316\020m\262.;\362\266\220\n\n\261_\345\024\270\007\245\003\263\330S88\363+\327\262\261{\315\264\256\263O\265z\305\301\262\3367.\2636\216\276\267F\364\030\262kc\r\272\276\230\304\263\352\250\024:\274C\037\265\222\022\227\265\002\277R\266\366Q\263\266R?\230\262\312]\234\271\2260,\266^\377Z\275\3548\227\267\024\376\\=\255Z\016\270 \331\356\265\014O\005\271\013\215@\267xc\250\270\'\322N\272T\301\355\266\336\341\362\275P~\003\270T=\366=\235T\244\271\014\016)\270C\022\300\271\373\226\244\267\252\215\177\273c\257\233\272\314I\351\270<\024\r\276\000\354\223\270+\021\026>\351%\000\273.t\037\272\301\200r\272\2568\006\271\217AI\273\233\325Z\273\347g\304\270r4c\275tJ \271\344j\205=\340\361\327\272\344\021*\272\027\324\033\272t\224\007\273\017\352\326\272\376\031c\274\005X\331\270\220\226\210\2756\2311\272\276M\266=nl\200\272\305\037\"\272\276\205\033\2732\316 =\334$\305\271&\0020\275\207\306\211\271z\270\344\275\327L5\272\233\253\016>\350\242\005\274\375\212\224\272\321%Z\274\313\365\253=\177+\352\271\231a\'\275b\345\372\272\341)Y\2767\026\004\274\360\376m>\002\233\326\274~O\272\272J\032\320\274\023\302\020=\002`\005\272\366m\311\274\240\002\221\272\305%\320\275\005g\375\273\207\224\366=\234\216\331\2738\246\t\273\230G;\274}\235\220\272cF\361<n6\005<\213\316\374\273\311^\240\274\020n:\273\220\220\354\267\352\303\302\2717\271h\273\220\321\034\273\352\033\000=\330x.=\267\3026=3v\"\274\223%\022\2767as\273\347\"^=\207\342`\272\307<,\273X$S\274\352\242\266=\376-\217\274\247\320\337=\231\271\"\273\256\370\031\276\271u\232\273k\223k<\362\377\353\272\3102\207\273\234\221\002\275\222\260.=\235Y\363\273\264X\242<H\312R\272\246Or\275\341*=\273}\374\352<\212\033Y\272\370\352M\273\242~\212\274\014\206F\272\030\350\274\271\302\235\330\274\311\307u\271\350\202\265\274\016\312\236\273\350\027n=\236\220\343\270\317\300\322\272\312\232\323\272\n\354\337\271U\364\375\267\3043\245\274:\242\345\2709\231Z\275Z\345\213\273\324T\247=\1774T\271Mj\255\272\037\377\354\272\257\204q\271\020.\341\270\022\322\016\274\346\'\001\271\350H*\275ym\360\2721\013b=\242\247\326\270j\363,\272}\376\360\272\240\327\243\270\263T\245\271\000\037{\273\t|\024\271\272\013\021\275%\214\330\271\231\324(=&\253\211\266\316\2512\2720\352\262\271\334\213@\267_<\337\267FK\276\271\251\331=\267\346\342\\\275\025\344\022\267L\005`=J\236\241\267\320F\333\270M\373f\271Q\013\203\265&*?\265s\367-\271\260\217\273\263!\004\322\274\323\377\347\266\240\350\324<\2622\340\267\3331\005\270\331\260\373\270\000\000\000\000\000\000\000\000\000\000\000\000\000\000\000\000\000\000\000\000\000\000\000\000\000\000\000\000\000\000\000\000\000\000\000\000\000\000\000\000\000\000\000\000\000\000\000\000\000\000\000\000\000\000\000\000\000\000\000\000\000\000\000\000\000\000\000\000\000\000\000\000\000\000\000\000\000\000\000\000\000\000\000\000\000\000\000\000\000\000\000\000\000\000\000\000\000\000\000\000\000\000\000\000\000\000\000\000\000\000\000\000\000\000\000\000\000\000\000\000\000\000\000\000\000\000\000\000\000\000\000\000\000\000\000\000\000\000\000\000\000\000\000\000\000\000\000\000\000\000\000\000\000\000\000\000\000\000\000\000\000\000\000\000\000\000\000\000\000\000\000\000\000\000\000\000\000\000\000\000\000\000\000\000\000\000\000\000\000\000\000\000\000\000\000\000\000\000\000\000\000\000\000\000\000\000\000\000\000\000\000\000\000\000\000\000\000\000\000\000\000\000\000\000\000\000\000\000\000\000\000\000\000\000\000\000\000\000\000\000\241\202\201\262\036\'\201\257\232\272\241\264\214\265\331\260\200\"\224\266\325\254\266\264\232\014\3666b\3538\253\007\214\014\266\332\2470\264\333\324\303;\221\302\341\256\236M\025\270=\200D\265\317z\302\273\223\321Q\271\341\364c:\014\253\270\271\231n\311\266\365\304\245\271\212\020\027;\346\210\037\266\351b\372\272\3270$\265\300\377(\273\002w\223\267\376\000\";\031\010\000\271k/\016\270\263\277\351\270\244\3045\272\216t\024\267-kI\271\003\301w\271\034\327\343\272\351\377\270\266W\352>;\227z\023\266\"\021\001\270u\205\301\266nq\013\275\033\022@\270\r\275\243\272\273\006\255\272\003\347f\275\254\014/\270\001T\300=0\217\361\271>\277G\271\307\325B\271\003\003\037\275L`\006\273\254\213\306\273_\217#\273-^<\276\276O\031\272E\026s>\351\334\014\2735\023\030\272\233b6\272\333\356\353\274\356\3409\275\241\3208=80\204\274\342\216z\276HZ\237\273\243\253\232>)\263p\273=\300\006\273\037\331\323\272%>\003\275.\231\272\275\275\253@>\261\245\332\2742\201J\276OU\240\274\351#Q>\353\310\355\273\021vT\274\270\244\243\273\247R\360\274\3774x\275\023\311\366=\251\3056\274\310\273\254\276\006\257\210\275L\"\343>`\316\220\274\021\035\332\274l\205o\274\023:a\275z\243\235\275#LF>\267\260E=l\025\252\276\2411\n\276\363\020\363><\366%\275\307\323Q\275\377U\323\274\020R\212\275X7\r<\234C\322=+m\236=\322d\346\276n~\003\276\016\226\031?bq&\275c\270t\275\304\036-\275D\257\324\2756\242Y>\0075\224\273\027x\031\273h\311\234\276\273\211\373\275;\376\355>\247\203\216\274$\363\241\275\\t(\275?\020)\276%\243?>|y\220=\302\035\270\274\250\t4\276g@\021\276a\203\301>U,\276\274w\301\223\275\n\205\017\275\242\177L\276\225?\301>|\306V>\374#\255\2754\206\206\276d[\246\275b\201<>\014\245\355\274\233\336\242\275\213X\r\275\331\374\037\276\362\203\177>\3308!>\031\225n\275\267)\255\276\331\2355<\313\332\220>\337\211m\274{\371\265\275Y\0028\275r\226\004\276G\016\240=\271y\314\274w\200z\275\327\250\'\276\256<\332=W\036\223>r\365\345\273\230\365q\275-0\332\274\207\003\245\275\256j\377\273\236M=\275(\177\270\275\026\226\r\276\265\324\313=\206\035\216>gw#\273\027\274\303;;v\220\274T\354^\275\320\022Q=\177:\370\275\212\2476\275\344\270\333\275\310\006Z<\255\204\253>LX\365\272;Ye\275\002\347d\274/\032&\275F\273\230\273\20582\275\204Ir\274\303/\265\275\032(\251\275\254}\232>`@\253\272\367\321\227\274=\360\357\273je\231\274\t\325+\274\003\306&\275\351&\202\2748\322\262\275t\264\317\275\320q\233>\r\373P\272\032`\215\274\260.4\274\313(\366\273\362\256J\273R\3773\275C\2227\274\333\253\257\275\006Mv\275\353\235l>\350c\007\272\266\341e\274JI\237\273\275\265\205\273\254\027\367\272\305\205\t\2745\263,\273\233\377S\275\233\350-\275M0\357=i\2359\270\373\331\254\2734L\211\271\237\320.\272\320s\037\272\227w6=\255\316/\271\2364\211\273\276RK\274\362c\301\274A\361\210\267K\210;\273e\300\276\267\376\325\023\267G\355l\267\360\000\000=\360v%\265\275\351\201\271\352\377y\272\316\021\354\2746\367\234\261_e\236\272DV\257\264\000\000\000\000\000\000\000\000\000\000\000\000\000\000\000\000\000\000\000\000\000\000\000\000\000\000\000\000\000\000\000\000\000\000\000\000\000\000\000\000\000\000\000\000\000\000\000\000\000\000\000\000\000\000\000\000\000\000\000\000\000\000\000\000\000\000\000\000\000\000\000\000\000\000\000\000\000\000\000\000\000\000\000\000\000\000\000\000\000\000\000\000\000\000\000\000\000\000\000\000\000\000\000\000\000\000\000\000\000\000\000\000\000\000\000\000\000\000\000\000\000\000\000\000\000\000\000\000\000\000\000\000\000\000\000\000\000\000\000\000\000\000\000\000\000\000\000\000\000\000\000\000\000\000\000\000\000\000\000\0009!\020\263-2\235:$\347\360\270\n\357W\270\354<#\267\221E\212\266\231\333Q\272(\215]\261\032\264d\271`\231\336\264r\227Y<\246\263\2259^Q\245\271.\314\030\2702\214\245\274\314v\001\270\363\024!<\333a\206\272\265\035-\272\340\365\222\272#\2705\274\311\033\310\270\250\202\337\273\317k\340\273\2006\366\273\340\263\252<\264\tY<W\334\223\272\353NP\271\356:\313\2711\203\301\275\201\353\303\273p\202D\273U3\035>U\336\017\274\343n\213\2755\206$=\242$\035\273\361\350\"\274h\262\204\272\377_\007\276\347\007a\273O\266\244;\231>\357=d\362\342\275\331f$\275\211\225C>\355ae\273\020\322\255\274F\315\311\272\225\371\026\276\264\345\333\274\024\271m=\270\3200>\377\3727\276_\213V\275\252\255p>\2740\234\274\\\316\030\275\030\235G\273h\315\014\275b0\267\275\340q1>\300\246i>q\322\277\276\205\265\221\275\266o\215>a4|\275\313\037\014\275\355qI\274\327\314\261\275_\356\013\276\334!\010?\033G\324={\372\367\276\374\315\304\275r\331\225>t\333\212\275\254<\260\274\326\332\016\275s\231?\275\350\230a\276:\362\342>\224QT>\325\300\351\276k\376x\275v\345\262>\340\323\000\276\357(\n\275Y\204e\275\341MR=\025\217\275\2769u\006?3y\004?*\271\n\277\222\2706\276\275\021\313>\277\236E\276\017)\372\275\005\000\256\275\214\364\216<\356\342\016\276\364\207\331>\202\303#?C\366E\277\001\2571\275\221E\215>\244=\025\276/v\003\276I\253\002\276H\321`>D\340\226\275\270\343\035?\263\326\233>\231\334o\277\036\322P\275X\205\264>\321C\025\276\177{\306\275k~A\276w*p>\217&0\276f\356\261>q\330\037?\370\373#\277H\307H\275\217\310\212>9\312\031\276\323\014t\276P\332h\276\244\215\370=\202\336\202=\225\376i>^\035\371>F\365\030\277\273.\316=\302\322[>\263\300\017\276\034qe\276\r\351\201\276R\305\027>\360\326;>\200\035\266>\2323\254>\037\037\005\277\023Ib\275[ \n=\240\252\336\275\001\203+\276\000\337R\276\244\202\327<\\\221\247\275\036\233\202>om\220>\370\363\257\276\211\215\332=\260(\343\274\021l\207\275\036\332\314\274\276\340\000\276\r\023!\276r\025\205\276\275o\030\276\356\336\313>\371\r\233\276\000Gt>\265\274>>c\300[\275\t\265\371=-\020\267\2748\372a\276M\262)\276W\326+\276\257\210\267>,\033\254\275VX[>\306\274\217>\371\314\355\274n\371\016\276\324{>\275\253K\033\276\230Gd\276v\316\215\2767\366\326>\254\372\215\273\352\030\235>\351<\334=\362@\016\275[\206\311\275s!9\275\246\3619\276u\\A\276\351hR\276\025\376\322\275\347\265/<5\352\254>\275B\240>.\240\256\274\201G\205=\224s\327\274\355j\370\275\347\355\025\276c\344P\276\255GX\276\256C-=\274z\027>e\010\300>\337.\254\273un\004>b0\323\273\341U0\275\344.\333\275^\2039\276c\300\350\275\036\244\r=\n\256\270\275\337\200\273>/\273\225\272f\233\014>\257r\371\272D\234\241\2740\342\272\2753\232\353\274\205z\010\275\316\271\202\274\037r\246\274\230\2168>\\\000\035\272Y%\367<\224u\364\271\2118\021\273\312\360\341\274h\302\315<\333\301\211\271\336K\001\272;\324\252=\206k\253\275\245\273\t\266u8\274;\213Y\227\267W\323\275\272X>\024\275\243\220 \272y%e\267m\212?\271\306\210}<C\311\353<p!\r\263\352B\276\273\364O\255\265\000\000\000\000\000\000\000\000\000\000\000\000\000\000\000\000\000\000\000\000\000\000\000\000\000\000\000\000\000\000\000\000\000\000\000\000\000\000\000\000\000\000\000\000\000\000\000\000\000\000\000\000\000\000\000\000\000\000\000\000\000\000\000\000\000\000\000\000\000\000\000\000\000\000\000\000\000\000\000\000}\310\202\262\273\370\367\261\316\207@\270\320\357\2158<.\344\263\255J\243\267\311\r\254\261\361\355L\261^L\020\266\372\271\330\262pV4\270{\236\206;t\237\237\272\003\0168;\233\213\306\266\236\2112\273JO9\273\001\214\244\262t\354\312\270>\'\260\265\r\204+\272P\375\023:\016;\037\274\n\361\343<\316\225d\273&\263\025\274\000\000\232\273\356\274K:C.\231\272)~\235\271~\343=\274P\312/<CE\217\275;\001\255=\031\r\303<\243\337}\275\223p\t=\237\233Z\273h>\246\273m\337%\272\241.\010\2765\352\212=\264oJ=\2541\250>,\316\377<H\337\204\276iy\321<\252\267D\275e\030`\275dy\357\273M\216\027\276\r8p=U\304\213>K\217\257>\343\370\235\275\244\227\216\276b\0143\274\200\002k\275Pu\276\275P\352\034\274&\212$\275{\335\237\274\373\3400>d\302\267>\tK\305\275Sz\035\276\340\014E<\227\232\321\275\251\244\306\275<a\r\275\246\203\244<\373\371(\274([\207>\342s\370>\266\215\241\276<\366\312\2763*\'>g7\037\276\264\251\025=\303\345\273\275\244\237#>W\346M\275\365\303\362>)\226\306>\316\215\321\276\022a\230\276a\331/;`\224\211\276\333\202A>l\025@\276\346.\353=\361\345\271\275\343\222\302>\207a\005?\214\303\017\277>\017j\275A\212\331<@\343\303\276k\332\206>\233\335Z\276j\311\200>z?\244\276#]\334>\221\276\025?w\372\004\277\324FN>\275\245\370\275\215\323\326\276tkk>aK\242\276I\336#\274\031G\016\276\364X\343>\000\214\353>\334\202\274\276d\334\207=\353\307\000\276\222\301\261\276\257\'\346>\320\030\334\276\236K\275=\007\263|>\371\304\204>\360\344\003?p\021\000\276/\276\220\276\"\177!\275\032h\266\276\177\367\235=\"Z\306\276\307 \010\275\366\177B>\372\205\341>\"\022\256><\213\261\276W\211S\275\252\241\207\275\033\327\340\276\337\363\350>\341\013\372\276\242\243\014>\217t.\275\234\"O>\317&\314>\374\327\377\276\207\n\326>9*\363\2757\372\316\2762r\307>T\033\366\276\216x\255\275\022\264\300=#~1>L\215\372>\325\2736\276\343\203V=\n\251q=\264#\301\276\304\372\246>\r\315\r\277\327\312\022>\375\235\006\275\2239\326=\356\336\027>\031\372\250\275\3716\034>\345\372\330=\362\313\250\276\321\212\033>\275$\271\276\275\001\247\274\013\304\215\276\321\002\026=\\\203\307>\203\200\353\275\275\353\356>o\030\365\274\342\354\210\276OG\313=r\256\220\276>\246\301\275\334\262\002>\032].\276\317\242\026>\330\217U>\010\177[>z|\323\271\312\3331\276\272\336\265=\036\357\261\276\227\026\317\275f_\227=lq\362\275F\245\343<\2016\272>k\300\227\276!Z\311=\367\223\013\276\035t\244>\252Mn\276\222\222\022\276\210\355\201\2740\231\300\276:\003$\276\210#\302>\026\253v>\271\304\202>\033\277H\275c\221\354=x\216|\276\236\006\333\275D\024\014\276\244\\\372\276\326\371\300\275\254d\341>\342\241\257=\250@\276>\2048\177\275M\362\000>\223q\t\276\017\226H\276\201 K\276\220\331\335\276\033o\242\276LT\325>z\325\325>\371X\250>\036\346\270\274~\227Z=J\027I\275\213bf\276k$\266\276\233\007t\276 \350-\275+\312\200>\317\374\023?\367\274\002\276\212y\304\273\013<6>JOK\274\220\031r\275P\2425\276o[\246\274\303}2\273\276\306\275\271\275\022Z>bD\261\275\006\262\256\272\304\246\014>_5\'\273Y\366\316\273\215\026\264\274`0\321\273\024\267z\270\331\364\000\275\323=\n=_@C\274\212\300\257\271\334\374;=)\355\230\272\022\'\353\270s\014U\274\327\371\300\273.\300\245\267\361\024\223\273\177\363\244\273\226\202\301<\251\353z\267=\260\245;\341\343\363\270\000\000\000\000\000\000\000\000\000\000\000\000\000\000\000\000\000\000\000\000\000\000\000\000\000\000\000\000\000\000\000\000\000\000\000\000\000\000\000\000\000\000\000\000\000\000\000\000\000\000\000\000\000\000\000\000\000\000\000\000\000\000\000\000\000\000\000\000\000\000\000\000\000\000\000\000\000\000\000\000\246\302\004\2720\202\004:\212V\201:\02487;\036\n\311\270\n\321m\273\301\27209\305\372D\266\370\347g\271\252\322\256\265!1\324\273n\365L<T-$\273su\001>\371~1;h\261S\275\004\305m\275X\3358\273B\344~\274d%\225\273\273p\004\275L\224\350<vc+<\372\234\214>\030H\256<\326\020x\276/I\016=\026x\006\275+\322L\275\006\344E\274\321\0179\276\304\236=>F\342\013=\234\024\002?\243\025k=\3768\232\276-\207W\276\322w\t>#\005?\276\205_$\275\237rD\275P\222\334=>\257\264=nR\371>\266\241T\275\n\253\305\276\331\317\020\276\210\3361>\341\346\004\276\377\242\313\275\217H6\275,P\023\276\340.\000>!\317\273>\330\\\305\275:5\237\275\227\374\027\276\016\222\037>\353tn<U\036\033\276U\366S=\265\251\300\276\350\334}>\232\335\001>9\216\212\275ha!\276?\031\017>v\212}>\250u\014\274%\230P\276\351v\221=\346\230\334\276?4\222=>-N>;\234l\274\030S\302=\324\027-;!\260\037>\205\236\021>\030\232\226\276\236\302\257>\205\320\214\276\241\253.>\304W8>\306:}\276\330\036M>\036\247\312=W\006&\276\365oD\2763Q\357\275\374\215<>\244E\317\276J\363\225>Bc4>z\265\032\276\337\376\340=\320\013\010\277\202\255m\276k\205\205>&^\227>\263\344f\275\215\335\245\276;\265k>\342\337\033>\363\022\020<*(\345\274\364k\225\276\245\316\245\274\261\030y>_\370\257=\246\250b>\266\360n\275\020\005 >7\230\376=\356\341\247\276\302d\001\275+\010\307\276>1\374\274\247\023\262=sl~>\376\213x>5\340\226\273r\330\001>\336\246^=\272~\261\273\0038\'\276\315\271\007=jo\225\276TUx>T\367o\276\310[#> \337a>4\247\016>K\326\177>\2217+<\200\256D\276\221\232\214\276XT\310\276\317D\234=G8\377:\207G\311=#^B\276\325h\274>\006[\334>ZVj=\205\007\034=>dW\276\255\247\233\276\205\3569>mO\360\276L\033\274>j#\216\276\363\010\027>l\233\201\275P\002\006\276!\375V>\256\344\361\273\326h\322\276\354\346\354>)I\230\276\217\205\304>\350\311\"\275-.\242=\034JO=\364\207\313=x%\022>\353\302\033>\243\207\342\276\030\275N\276\240!e\276\t\247\221=\025\013\223\273\304\230\025<<\261B>\234\343@>Fc\234;\032BA>S\346!\277(\341.>h\226>\276\374\022%\276\215\334\000>f\240.=?b\213=^a\006=\2702\321>\307\301P=\177\\#\277\250Z\215>\034\224R\276\237+}\274 \236\274>\332$\246=s\333\365\275x;:=\000\302\034>)\363\343=\312r\306\276\274\223\316=\233\236\254\276\216\350\246<\314v\243>\271\031\356\275H\213\201\275\255M\220>\271~\266>Y\200\020\275*\241\213\276\"\323x\275\275\374\333\276\221\252\216\276*K\351=\201N\241\276\217\341\231\276Ac\017?\322\374\350>CY\260>\030t\n\276\350\3458\276%\347\206\276\254\250\257\276\377J@\275\271\001\253\276T.\272\275\372\023\365=\370C\030?\376\025\351=\366N\014\275;S\004>\303\310\335\275\246 \033\276\327<f\276c\001\232\275\204`\332\274\244\237\253\275\0075\312>\322mx\275\264\2438\274k\241\215>52\032\275\3362>\275V\245M\275u\346\310\274\301\216\006\273\335\221\025\275\003z\231=\220;W=\370W\231\273\006T&=m$q\273\203J\200\274\200\007\220\274\211\352\r\274\353\313\022\271\013\300\321\271\207I\t<\213\263\020=\013\334\032\271\352S\210\272\305\002\235\270\000\000\000\000\000\000\000\000\000\000\000\000\000\000\000\000\000\000\000\000\000\000\000\000\000\000\000\000\000\000\000\000\000\000\000\000\000\000\000\000\310+\341\266\232x\235\265\003\004\317\270r\237B:\017\222\251\265\231\233Z\270\233\033\207\264\'\370f\267\372\025\177\2709\021\005\272\234C\367\272\002\336\377\274\2030\\\274\3714\205<\024\"\213\273\014\230\333;\353\226\347\272\363\350)=D\371\001\274*\017\201\273\013\t^\273\343w\010<\334\321\213<\367G\'>\177SM\275\342\0308\276\217\253W\275\347\344B>\334\305]\275\324\260\037\275\273\220i\275\261\250\322<\250y\014>\n>V>\376\323\307<l\001\207\276\341\314\025=\215\274\365=\362\233\004\276:\252\322\275\307c\335\274)\034`\274\237\362\275=\217\216\214>\n\262Q>\377\246<\276\027.\034\276,\237\216>\275\373&\276.\303\236\2768\261\263<\356O\276\275\217?6>1\021\260>\237\366\013>\300F\033\276I\343\256\276\225;\342>q\356Z\276\273\020\245\276\365\200\277<&I\216\276\233\'\006>!\275j=\347\345\263=\212oK=\'y3\275\241;\301>\3130N\275\n\210\265\276\217\343I\275\247l\317\276\036\227==*\344\203>k!\023\275c\275\211\2753\227P\275\246\313\340>B\301D=D\327:\276;\034\265\276\231\037\t\277\260u\245>D\235\304>5G\343=D\005\351\275C\037@\276(\201\204>-*\223=\221\340+=\376\345);dZT\276V\006\221>\257.\355>\325\2251\276)C\223\275\337\304\326\276\301\\\267>>:#\276,\352\232\275w\374\202\275\345\326\250\274\013\327\345\274xm\200>*,\241\276\350A\024\276)\337\253\276\334\204\001?\254\226\324\275-\205\202>\333\357\220\276\010\215\220\276\356\247\004>hV\265<\261}\\\276\322\007|;\023\3160\2768\300\250>0\343\264>\357y\353=\341\367\244>\252M\253\276\335\020\254=ey\354>\030\277\306\276*{\313\275\311u\000\277\274\026\313:\346Nt=_\r\312>l\320n>\340\223n\276\314\031\020=\272N\n>\226\007\354\276B\2129>\225\257\243\276\000\352\2208\213\361\014=\270\002\312>P&\206\275\211\260\217\276\312\004\017>i\272\027>\336\270\t\277>\373\000\276*I\310\2750\r\366=6H\330>\242\021\216>\204\220\252=\230}`\276\232\354I>\ni\221>\345\252\352\276\0074U\276Up\200\276f\246\222=\322N^=\305}\344>\327\032B>\237\330\342\276\256\362{;p\347\270\272\327;\202\276\026{\370\274>\356r\276\311\\6>NAd>tx\276>\006\340\303>\2779\266\275\330A \274(-\316>\322z\t\277\371`\306<\230\017\357\276\335\317\242=!&P\276\'\202\325>yN1\273\325`v\276Rg\247\275\'%<\276\034p\306\275m,\224>\276a{\276<%\r\275\211\207\016?\021\257!=x\006Z=/1B=#\3139\276\354\017\323=U!l\276\226@3>\214\215\365\275B\264\345\275\303=!>\262\362\334=\014k\270>R|\211=\277(\305\275\357G >L\002\002\276\356U\276\275\271\222\033\276\271\024S\274\032\347\365\274\3352\225\2753\212\344>\310\340\311=\224\210<\276\376\324\232\275\036\224U>v0d>\200\000\001\276|\303/\276U\225\333\275\375\243\237\276\342#\036\274\254\370\014>\004\375\010\277QVE\276\303G\024?+)\202>\276\265\214=\323&\231\276\263.\252>\211\323\253\276Kl\372\276@\033\334\273V\376\253\276F\242\221\275\345X\014>>\307h?d]\254=MP\357\275\026\001\375=\343\365o\276\214f\271\276\014y\035\276\314\352\262\275\216I`\275\217\025\242\274\216\256\376>\227\231\224\274\327s@\275^Z\251>?\241\256\275\354\2273\276\271\266\261\274\005\237<\2744#j\273\220J\265=c3\027>\237\305i\275\232\354:\274\033\307\232=\346\324\376\274\277\2523\275R\224\242\271<\211\350\271?\362\021\272\326\360\016\273\254dm=ui\221\273\200\3568\272\236p\241\273\022x\013\272\000\000\000\000\000\000\000\000\000\000\000\000\000\000\000\000\000\000\000\000\000\000\000\000\000\000\000\000\000\000\000\000\000\000\000\000\000\000\000\000`\326\375\271\007\374\020\273\177\345&\273U\366\220<\3708\232\272\375\354\342\2726\261\226\270\205\243\035<v\n\262\273\267\321_\274T\312f\272T\320d\275E7(=\363\030\321\274,\232\257\273\335\307\267\274\340~\000\274f\366\323=1\220\'\2745\242\206\274\257\300\242\273MW\255\274\027\236\240=\321\260\205=\0176\233\274\361\241Q\276\242(\206\275\254\250\253>Poh\275R\375\332\275\023\006\337\275p-\177;\365-\301>he\271>\334\352\351=z\254\031\277\376E\033=\213!$>h;i\275\013C\224\276\236\'\020\273\273\233&\276\221\305+>\334b\r?[B\300>\001\303\251\276,\213\256\275g\005A=\325\335\021\275\266}\006\277\352\307\272=2\010\212\276\3618\271> \216\207>\257\344;>\335P\241\275\240\023\330\276\016\202\241>\256\321\005\276\007\224\241\276\202\370\\\275\225\001\232\276l\375\014\276\307\221\032>YmK>d\313 >\035!\330<r#\252>\351\353\253\274y,\264\276\305\254\220\2764\217\027\277\312\333\201>\302\037\022>v\251\217<bG\216>\233w\304\275\2014\326=f\272^>uw1\275%,\357<_\206\252\276\343\255&<\206\245\r>\241\250t=\tH\202<\267\0023\276\306\254\206>\221\363m\275\271\'K=$ed=\337\320\243\275i,\000\276<:\035=\272\020\206\276\021\370\216>\037\215\222\276\305\240\315>\230c\035=\351\202v\275G\025\021>\034\277\215\276\020\333\277=#:\272<\307m\256\275b\2153>\227\274\265\275\312\013\214>\007m\220\276\332\374\323<PM\365\274\375\024\362;\312\334\307\275\221=t>\\\355\002\277%p6=\311\2713\276\216\240\205>_o-\276~f\335>N\004\037>\332\306t\276\243\"\262>D\214\006\274\021!\255\276 E\221\276\276\231\277\276S\017g>\325\313\024\275\360\002\r?h\0143=\370\205\312\275\376\356\352=a\272\240>4\303\377\276q\267j>\214\234X\275\010-\357\275\265\027\341\276N\224\001?.\254\350\2756\375\355\276\031\277\240\275M\010\217>\322\025\304\276R1\210\276r\350\252\275_\035/>\177\264\257>\225\207\030?\217\032\212\275b\312Z\276\032\257\303=\200D\347\271w\204\345\276\2174\003>\251\035\302\276\225zv>z\'\303=\026\236\014?\"\312\241>:\217g\276!D\253\276\254OP>\330E\241\275y\212\233=r\277\215\276\354\'\233>3\225v\276\330k\204>t\356\233>~>\244\276\227\377\032\275I\231l\276\264\212\251\276\252\327\272=\254\206\266\276,\205\332>\302l\225>R\316&>\351(->\272\202\266\275\274\344\363\275\310\\\t>\232\315\274\274\000\301\035=\033\340\250\276K\231J>\251D*\2754!\201=\340\037)\275\342\223\201=\213\003\211\276?#\372<m\351\203\275v\303Q=!\241\265\276\300\371\307>$m=\274\351\352P>u\0319\275\273\347\263\275@\270%\275J\001\211\276\321\020\004\275s\'Y>\t\263\177\276\234\250j>cq|>.\203\020=\271\307\202=p\367\306\275\376\377]>w\353\206\276a\365d>\270W\224>\276;\310\276\266!\030>b\345S\273\346\020@\276\341\247\210>\365\231\n\276?R*\2774J\223\276\315\304\376>`+\306>2\021]\276\037]\200<\254,\271>\232\014f\276~\3670\276ee\336\276<\277\000\277\3040^\276GA[>\364\366L?*\322\352=+M|\275\033\225\377>\213\254u\276\021\023\321\276i\030\201\276T\201\341\275\033\347\221\275\262nT=\232\264m?9\016\007\276}\313\206\2753\243(>\327!\330\275r\277W\276\240n\375\273\251\340\206\274^\2305\273o\327\373=**\036>y\324u\275\226\254B\274\246Q\225=\362\004\'\275\021\200D\274\341s\211\273\371&\277\272-\306I\2717\276L\273\227(\350<{\230o\274O\212\270\271\037\265\n<4?c\272D\363\250<@|:\264\033\037P\271;\202\002\265\031&\033\272\316O\257\266a\322\257\266=\227`\274\002\n\343\267zx\307\27327>\272\270\033\361\272d\322\213:\324\374\223\274\023\'\262\274+\274\233\272\267\234e\271r\345\264=v\016\241\273{\260&\275\034\224\214;$\332\024\275\323\367n<aB\313\274\252\300\275<\n=\324\274\375=\332\273\266a\017>z\223D\274\207X\234\275%\373\204<v\342\253\273!a\t=\254x\302=X5;<\362\323a\276I\302h\275\301\245\327>/\212\231\271\336\300\226\276\004\360\030\276\365\370\004\275\0375\311>J\376\347>z\342\265=\243nL\277\'\025.=\334D\257>\262O_=,\250\311\276^\t\257\275\312(\311\275\366\022L=O$x>\270\003\233>\207{\301\276\006\311\014\276\325-\213>q\345\n>*L\233\276\216\224\203\275\220\022\211\276\r\037\203\275\327\335\224=!\316\307=\001+\347\275\223\300\236\276\245\014\216>\215\321\264>\226\034\224<yi\316\275Y\260U\276u\244\231\274I1\312=L\234\017>\265\351\207\276o|>\276\333\327-?2l\204>\272A\313\276)@$\274Q\341\005\277(B\205=aj\267\275\235\262\000\276C\257A>\210\360e\276@\330\302>\343\307\010\275z)\276>\"P\261>\275;\004\2777\345\006\276DR\033\276\345\235E> \250\270=\253c\354\275v~]>\365.G>\205\315\377\275w\224\313\274v\212i\276\374k\232>\250\201\016>\276\266P\276\311f >Z\324K\276\324\344a=Q\260\321=\235\021\313\275\247\036\254\2755\236\265\276\341\317\316=\213D\233<\316\327^=\007\222\037>\277\3754\276!_\324>\004\0343\275\030\211\257\275\260Aw>g\032\275\274\271\261\032\276\276\333\274=\004\035\206\276\340\237g\2742\001^\276\303\033\357>=\301~>\367\315\303\2765-\340\274\321\002\300=\016u\250\275\364%\314=Q\236\305\276\2759\223\275\224\037_\276\013\304\325;\227%\253>\374\226\200>!\257\222>\374$/:\262\244\034=\t\343*>(\351\373\276V\241\314\275\232\031\377\276\215\346\242>\177\026f\276\007\"\001?\256u\264>V\'\246<\206\212e\275 \n\033>(\335\213\276O9f\276\231\242\n\277\230X\317>\026\232g\275\264\\d>\340\250/? \"\273\276\235\266$\276/\263\347=< \022\277\270\030\037<^3\341\276\300\364\241>\226\313U>\314\300O>\016\232\225>\220+?>A\376\330\274(+A=>\371w\276\365\000\210;Uf\227\276Cd?>\020\340\032\276D\201\303\272>\303\314=\331\270b\276\203\211\225\276\331\242\325>\240,N\274\327\207\327\275G\270+\277\260R\374>\256\357\010>\230\030\">\313\362\202;f\021\341\275|\274\201>-Y\362=g%#\276.k\272=UF\033\277\211o\306=d3\244>\232\222\014\274\231:\221>\006\234\241\276.*\241=bQ\002><\374\326\275\262G\246>ZU\341\276!\336\200>\206\361\240=J_\221\27658\253=\017|\233\276\304\025I\276\021\006\\=\314D\355<\217\026i>\037\024\212\276\\\270\247\275\\\2474>C\007\220>\301\232J>\350\265\227\276\016\234t\275\265\336\314>\033,k\276\330\237\311=O\210\007\277Xh\210>[\211\375=C\031\351<kS\r?\000p\014\2777l{\274\214W$\277[\226I>\365\260>?\231\001\022\277\232]\030>\035\022\230>\221M\'\276H\034\273=ah\034\277\315\271\r\277\313\030\001\2771R\352=\213\227\250?C~\261\276P\235\r\276\373\200@?\332\337\367\275\265<\345\276>\275\214\276|5G\276f=\331\275\316\237)>z\'\202?\346M\210\276\264;\032\276\205m\271>\241*\326\275a\3533\276\000$\247\274L\346\307\274\221\245\312\273\265\212\204\275\350+\231>\256C3\276z\347\250\274\030\177l>\227;0\275\346J\016\274\216\031L\273\306\002R\273\362N\226\270m\3509\273\266\377%<>h\224\274F\323\330\273k#\013=\374\323\276\272I\324\036\266r\325\372\267l\215\217\2679\021o\271\2717_\272\335\274l\270\243\331\314\265X\343\035;o\322V\267\342\210\236\272\216\366\t\272\334\021\205\270R#\202\272%%\213\274l\326\307\274\341\365\224\272\367\343\312\270x\307\317=\215\266\'\273\025\r`\275\337\340/<\217\263\306\274\222\302\025\275\260\266u=\3558\023<\036dA\274l=^\274\010\031(>\324\204\n\275\256\253\375\275\311\3125=\001\206V\274i[\210=*\262d>.\"-\276)\332\203\276\002\247\207\275\222\243\367>\n\247\005\275Y\016\217\276W\t\247\275c\343\352\275C\244t>{\2243?\304\224\212\276_I\033\277\177;\272=M\260\344>\312\254e=M\314\353\276\274\250\203\275}C\236\276K\243\337>hD=>\346\024\370\274]}\267\276mb\211\276u_\224>\337\220\027>\240\345\355\274\336\364 \276\361p\240\276O\377E\276\216L\014>t\321\317\275`X\204\275\276\365|\276v\010\243>\326\005\227>\377;\247>\327c8\276W\032\014\276\027\002\037\2769Ff>\004\343\226\275\312~_\274\252\337<\275\351\205s>TH\000>\356k\220<\032\016\r\276\232\363\177\276\272\246\n\276\014\212\007>\221)\345\274{y\022>\361sY\276\337\022B>\202\014^>\020>\247=EQ\204=\300\022\335\276E\343\317=kB\352=\343\306k;\312\340\231\275\200ff\2765\323\241>t\027+>i\254\020\275\376C\203>\"\036M\276\343\314I>B\033\302\2751\020\242\276\324\257]>\226\240\270\276\226\2317\275\264\300\177=\344\277\221>_\334N\275,\260\027\276\202\007\n\276R\266\267\276Z,,\275r\232\351>\005K\001\276}\256e>\235\355\237=\257\261\320=\035\013k\273\0177\030\276 j\035<\307\323_\276rr$\276\362\231\207>P;q\276e\201\031?\375\372o\2764Q\002>\013x\315>\026\266\213=\n\3537\274\250Ne\276\266\021\352\275\014\323e\275\271\230\005\277\220(\224>v\313\001=\" \014>H\265\202\274\353a$>\200N\177=m2\241>\227]*\277\3354m\276\370l}\276\222p5?\252K\212\276#\254<>\325c\235\276\311\026\025?~%P>\352\323\002?hN\327\276\264\270\372\276\2352\347\276\326*\354>dO\373\2761\333\315>\376\2640>UD:>\334Vu>V\216\247>\02100\274l\353\354\276\373\030%\277\213\262\260>\330J\247\275\036\333\207\275\0163\257>\376\254\206\272d\354\n\276\322\342\013>\260\354\315\275\352\351+\276\2455L\277\326\305(?O}\203=\224\264\022:O>\212>d\262\373\275\031\275\023\2745*\035==\"\327=~/\264;-\371\'\277\237\362\231>\275\264\"\275\303\223\335=},\272>\307Xt\276\177\020\256\275\360\022v>m\023\023\276\333\321E\275)\t\'\277@0\325>W\211F=\003@\313=\006\370\237>Tb\321\276\021\223\245\274Y@\223>5\366\276=\242\251 =\376\223\317\276\300L\213\274:\222*=\253\233\236=Z\370?\276\246N\257\276]\234N\276m\331\r>.\177\222=kZ\372>\336\322+\276\346W\255>\262\317\037>*\244\226\276\315|3\276I|\331\276\333\222\202=SK\000?\353\220\326<99\247>H\273\031\277\240\004s>\357\206\225=\215\003\341\2748\377\026?\002\241\013\277\314\213\275\275\314\311\226\276\264^\333=A+%?\377\022\333\276\243\345\325\274\200P\247>\202\234\220\276\265\360\335>\263\021\274\276\245\344\r\277\353\014\000\277\233t\240\276\314\244\306?2\360\330\276\014+N\275fu\344>\017\262c\276\306$\320\276\022NG\276\326\022\017\2760\274\205\275R\363v\276\033>\252?\272,\350\276\030f\013\275\335\030\273>\275q$\276\201\257 \276c\366\275\274\235.o\273\253\223/\274\'\324\266\275~b\235>\333H^\276~\'\305<\277?s>\322\244\213\275\205d\273\272\323Y[\273\342\272\273\272\032\356\320\271\301\017\036\274\235\372\200<\353z\001\274Ml\237=\272\321\201\275\201\372\305\273\267\001`\266B\371\021\270\205\301\"\270\355^\323\271-\356\201\272\275\303\222\270\204\347\357\265\253\"Q;0\016\223\267\016\265\325\272\327\311\300\2713\347\312\267mR\305\2714\230*\274VL\301\274J\257\253\272\327oi\267\307\331\302=-+\266\272J$l\275\351IS=\016\273T\2741\004\343\274%D\264<\330\272?\275\000Wu\274\014\245F\275+\357\215>P\375\317\274\342\2372\276A\364\273<\321Q\230\275\nt\t>\002\000\303>\270L!\276eda\276\334\222\263\275\212\003\277>}\226\t\276\241\276r\276\275\'(\275\"\350\026\276\221\216\343\275\252\203\302>3\005~\276\376\266i\276\210ji\275\373\345\331>\350\310\216>\005\312\200\276\344\363\216=\2657\254\276.\016\356>Q\320\017\275\360\320p\276O\2419\276\261\217{\276\335)\224>\246)\271=\034\317\363= a\252\275\310\304\003\277\310\303\366>\350\t\345:\212\032D\276-C\312\275\375f&\276\243\325D>\234\347\002>f\330|>\336\017)\276\025\"\250\276\367\355\020\274FW\226\275U\332K\275\001\254\220>\351\372\316<\255\244\262=\227\206w>\"\2568\274\024\273\250\275\0229N\2763?`\275|\372\254\276\034\365Y\275z\314\323>`\246A=\177\330\023\276\242\177h>\244o>>-\327\362=\336D\246\276O\270\204\276\311C%\277\301\234F>\313\305\350>\027\237\206\276\372\030Q>\221\235\252>\005a@>\260\321\314\2755Q\204\272\0336j\274\362e\013\277wL\036\275\233\037\237>\203\337\304\275\326\216^\273\311\252\237>\007\2263>~\324\">j\0106>\367\016\365=5@\003\277\262\347/\275\261%\216>?[3\276X\304\206\276\366\302i>K\272\001=\252`\240\275Uif\275m\026\205=\034\206\024\277E\351\253>\303i\307>p\316\246\276\263l\235\276\014\016\264>=\rS>\026\367q>=\005\317>a\tS\276\341\343\242=\345L\236\276\272\272\371=4\032,\276\373Wy>?\027\321;&9\321\276\361Yg=[\013\n?O\244\006>vG>>\017\200\200\277x\327w=\351\213\264\276\360~\320>T\215\003<\364\006\004\275#\246.\276\302w_?\256\023J\276A\004\234=R;X<\346\t\313\275\002\314\021\277\347\225\007?\203}\262\276\360\241\332\275\305\321\363=\314;\230>\202`\237\274X\203h>\373\301\177\276\307\021T\276\356\305\001\277\205{H?\2376\344\276\222(\035;\037\033\357>\232\362\017>\014\341h>\302\206]>\206A\\=\007\363\351\276w\205\370\276Nht>3\'\216\276P\221\375\275\221\002\257>\ruk\276\242\343b=\346\340Q>\247\323\335;\023R\004\277\nx\005\277\023\234\274>\010\201\222>8\327\232;\201\022\257\274\260\3147\276!s\260\275\252\235\210>\'|Z>\250\355\363\276\347:\017\277\177\305\372>\177\371\271>EK(\274\271;I>3\372\350\276NV\203\275\256>\300>\273\024\005\276LL\241\276\237\343\202\2767\006\372>\036yE>O\250\010\275\357+\031>y\177\240\276^\237\350\275\034\222\237=\367\253\352<~\376!\275\366\257\224\276\216\254\344>\267\020Z>(\206\"\276\271\216\213>f\007\327\276\273n\025\276\312\343\207>\365l\004<\221\362\253\275v\241\345\276\020;r>\330.\240>hR=;\250\200\n?\304\242\332\276V\363+\276\303\225O\275\372\022\t\277A\"C?\302\210\314\275\236\006k\276\366,\264>\0160\024\276\234g\364>\344@\260\276w\223\372\276\034\317\272\276\231~\332\276\324$\375?*\027\213\276\026r\010\276L\303S\275-\016\277\276\271\207\300\276\304\237\002\276:\245\276\275d\317\367\274v:\236\276t\320\334?x\217\014\277\367\316\214\273\306I\375\275/\221\345\275\360C@\276\303\346\032\275&4\033=n\253\275\273\212\230\361\275Mz\372>\014\260K\276\277y\234<\023\202\234=\315T\230\275\024\365+\272\327~\r:\002\346\204\272\3460\020\271\212\303W\273\0228\335;\366c\307\2746\237\250<a,\201<u\265h\274\266A\300\267\344Z\251\266\270\014\311\267u\014\225\271\013\272\000\271}\023\236\270\335S\277\265\".\267:l\253\036\270\207\375W\272J\234P<\343\361\3229\233\2620\272\200\000\270\273\254\031\n\275\367\005\210\274S`\000\2719(\002>W\340\374\272s\023\247\275Li\300\273h3+\271\225\303k\274]6\270<4\363 \276q\004\t\275e\n!\273\350\352\002?\356X\204\274%\302\233\276\\\226R<\224`;\275a\213[\275\005\023\314>Vn\256\275\271Q\220\276L;\301\275\361\352\352>\351~\370\274\252\360\216\276I\220q\276\007\334\260\275\243\205?\276\234\316\275>\360p\243\276W5\334\275\257\265\365\274]\265\377>\304V\350=\204\330\217\274\006e+\276\235B3\276Z(C=\367-#\276w\346\023\276\376^o\275\234\0337\273\356\365\353=\367\212\236>\244\225p>\336\211\017<u\010\356\276\325h\326<j\017\237\276o\302\030>\220\375\230>;}\276\275zT\335;\366\203)>\037}Z>\244\243\254<\333z\313\276[_\221\276\354\010\"\277\224\3741=\033\320j>\203pG>\376S\373=\206q\030?:\'\334=&\210/<\203\033\227\276\227\325\376\276c\"\000\277\025r\024>\237\0065>\260\006\3449\004\201g\276\0103\346>\010\251<?\214\211\206\276D\317\257\276q\265\353\276\002\177\031\277-\026\354>e|/>~,Q>\"\307d>\017E\344>\236\361#>Ht\265\275\023\016$\276,\371l\277F\334\363\276K\205\017?g\032\264=~\332\225=-\357\277>\2502\204>\227\211\227>^\013.\275v\005\306\275\nm;\277K5h\276P2\315=\234\201\036>\023Z\255\275\360\204\254>\356j>>\204G\317>\243\355\304\276%\3440\276\317\004^\277\204{m<%\2300?;jq>\237\204$>u\000\242\275\332\364\034>\257\267\177>C\231\t\274\240\373\327>4\"\206\277\025\365\304>\026\246j\277\367\000\036?\376\013:>\367\262\366=\263\321Y>\030\242\014=&\250\360\276\022W7?\311=\036\277\367\022\243=J\014n\277?\203\331=D\251\240\276\347:\n?j\214R?f\r\212=\014PI\277Y\310J?\177\025\023\277wA|>\206\375\365>P\033W\276\333\360.\277\005\354\312>\367\210e=Z\357\220>yA6\277\263Cq>\232fw\276\3528\257\275\3739\000?\232\237+\2762\301#\276\255\353\317>\355\2071\276@x\313>\363~\230<\005\272\013\276\031\241\352\276\355\301\313>U\033d>\200t\350\275\225k\355\276\250\310\237>\\\223\217\276[=\000?m\271\210\276Qg\005\275^d\333\275\212r%>\330G\225<\305\304\342\274*\377\257\276\262\301\t?\037\021\203\276\350\353\241>K\204Q=\207\016W\276\320\342\230>\004\304\353=`\264\322\274\0060\314\276\265\302f\276\253\021R>J\220L=\313I\017>am,>\021\0368\276{b\304\275r\277\353>\001\312q\276\305\217E\277\230\330\021\276\302N\260>\032\315\010\276\013\035\026?\276\362\351>\211\345~\276\275i\314=>\324\266\2752X\207\276\177:\023\277\247\371G\275u\306\245>xV\323\273\314m\264>?\013\202>\331H|\276V\354X\275\327\232\020=I$\211\276QS$\277\373\257\022\276U8\241>\276\257\254>\034^\322>\360E\215>YTf\276LI\014\276\353\"h\276N\036\016\277\334\344\216>\251\225\275>\357Qr\276\032\233\n?S\302\260\275X\364\366>\375\345l\276\223\025?\276\307\307\231\276\361&\025\277a\323m?ZZ\341\274\242\370N\276-\302\344>{\266\247\276\006\035\200\276\002\203\013\276\263\037\213=\306\033\334;\n\t\214\276\337\240\241?\225\325\n\277\017\334\312\275\314\254\000>m\217%\276\306O\372\275\254\025;\275\2532Q=+\203c\273\020\270R\275\031\316\253>R\325\244\276\234r\205\274\005\344g>\217)U\275\201&\332\271\365\310\024<\266\022Z\273d7\247\270/<\363\2722\367\262;\016$j\274s\340\305;\373\t\210;\276\023\234\273\003\313I\265\022\2745\262\201d/\267\217~\037\271\347jl\265JF\237\267\377\365\177\261\354a\r;\201\354\321\2676y\377\272j%k9I\366\033\2714:F\270G\rg\273w\t2\275\212\325\314\274\335\362a\271K\245\360=\245Q\252\272\236N4\275\021\225\372\273FF[\273\036\360\345\272\316\2374\274\243V5\276!\025\002\275\203\214\036\273h\247\001?\324$b\274\304\346\203\276\245\350\244\2745\315\r:\311mK\276\326\333\237=\344Md\276\244\367\361\275\233L\247\275\353y,?\002\025\342=\263rb\276B\330\025\276\017XM<?\363\216\276\333\271\377\274\305\371\353\276\375\260 =c\342\206\275\275*\017?L*\205<\355d\266>\344\250\313\274\002\227\242\275\336\t\034\277\254\364\204\276\244\016\242\275^l+=\236\360\200\275\364\235\222>\203\225\311>\364\207\311>\024\022\221>\230i\021\276\354\344\204\277\363\316\267\276\364\225d>j\364\310>O\313\020>S\354x<4\314\021=\335_\345>i\003 \2744\316S\276{\242\245\277\257K\251\276\217\025\316>\023\310\363=\233\334\223>W\213\350>\215c\244>p\351\202>\247\010\006\276e\207i\276\325\201\034\277\265\324\321\276\225\312\377>\360B];\006\252F>\317\311\024?\273G|\275\256v\'>\260\202\347\275\250\342\366\275\214\235\025\277\254\277K\276M\036<>\272\277\301\275\220\243\231>\267\313x\275\034<R>3m\367>\033\r0\274Y\200\301\276~@6\277\335\351\203>8\262\036?\234\253\274>[\257\200\274*\377R\276b\270N\276\357n\216>D\247\330<\336\007\010\2775\360(\277\366F!\276\373p\027?\017\256\031>\267\020\325>\314\006\216=$\302>\276 \037\220>\024\026N>\026L\340=l$\036\277|\370\016\273\217\013\225?\346\254\027>\251\346\001>]}P\277\332a\214=\351\313\304\276\372\302\014>q]B>#\256\301\276WO=\275?\277\230=\220\344\271>c\305I>C\322\220\277\245b\010?X\245z=\343\230\036\277-\367\200?v\373\020\2778\237\023?\365\213 \277G\226\n\276\370\327\236\276\352\251\326\2737\341\233>\t\303\300>\021\000v\277\3145\361>\333\326\032\277\251lj>ULD>l\266\275=\017\331\306\276j\327\343>\2407\002>\207\224\313>\215\2269\277\361\327?>z\210\212\276\315:\374=9}\307>v8\253\276\325\263\013\276\024c\336>\025&\273<\272;\236>\354\304\332\273\300f\007>u\362\247\276\361\305\360\275\302\020\021=\234\005\360\276\207\213(\276\377\247\003?\253\257\022>\364]\205>\306\345\224\274`\025e\275[\234\246\276\317\026&>/\352\373\274u:\272\276-un\276\375I\360>8j\013\275\000\332\333>\201k>>B\262U\276G\235\226>\361\345\261\275\316\375\022>B\036\275\276r\242\337\276:\334(\276\276t\202>F\273\306>\350\033\216=\251R\010\276\375\014\223\275!\367\276=\320\301\343=G\301\341\2768g:\276\306>X\275\310\025q>v)\276>!l\310=\013q\235\275\202\241\336<\331\3151\277\306\037\312>\325\206u\277\006\204\354=#\263\345=\234\346\373>^l\373>\250*\225>\'\364\254\275\271\371\200\275(\226\014\277\315HG>\037\277\257\277\357S\333>\202\273\027>w\034\360>|\303\t?M\016\332>\333Ok\275\340\254\346\276%\254\254\276E\203^\276\351\033\251\2776 g?\231\247\205\276\257\255d?\233q\330>\212\377A?\340j\234\275\275\234F>\277\304(\276-\237\'\276=\005\241\277%j\326>j\345\\\276}\315d?\367|\305\276\273^\r\275$\361]\275\021\206\275>\241U\316<V\247\242\275\212\000y=M\301\233\276\244\'~<\351}6>\267\3145\276k\000\232\275\365\3275\275\234v\207>\233\272\252\271\263\3675\275\320\000n>\371\350\261\276\374GR=\264p\210<f\312Y\275\342W\361\271\037\206\010<\266\373\345<\177\357\371\270\353\200^\274T\371\275\273\370\300\235\274\t\023\314<\330\016\246\274\331=\360\272g\023\214\260Q\355c8\034\206\303\266w\357\211\267\241-\337\263\251^\326\265$\273\260\265}\311C\267vm\276\266\036nD\267\227B\224:f2\345\267oj/\270\202\261\350\272\305\353#\275\016\310\\\273\322\033\253\271\217\341\205=\354\266b\271\337\313\251\274\314y=\273D\314\217\272W\364\206\272\022\262\353\273\216\327\363\275\236\342\001\274\264\000X\272\323:\242>\314tU\273\346\2741\276_\245\252\273\207;\241<\233jz\276}!\356<\025\274;\276\243\347\2308\310\351\223\275ua\020?\300\372\211=\305\0203\276\332\373\203=\024$V=(w6\277\254\200\231\276\371\214B\276\260\370\032>\'b\001\276\004\332\245>3\366\251\275\221\345Q?\030\365\340\274\2365t\275\233\305\202\277N\300\227\276\360%y>\2440\224>yw\271=\310M\361=o\231\352=\330\250\014?\335\364\276>\244\315\353\2758\216\237\277o=\233\276k\237\010?B\202&\276\002s\003?1{\201>\032: \273e\255 >\217\336\255>\302t<\276\0304x\277i\366\274\276\001\350\251>\016Oh>U\016\030=\347\000:>>\345\334<B\332\301>\373\215\t=\317\234\"=U\305\314\276\312\2629\276\370\035\315>q\375\207\275\271\210\237\273\303\203\261\274\327\354\265\275]\014\224>H\365O=\177\227\006\275\331\361\271\276z\327\312\275\300\016\324>qq\255=)=\336=Fh\200\276\024\251\007>\351R7\275\251\262d>\374E=\277\262\254`\276\230-\005\276n\370\006?P\200\\>v\240\232>\360\224\001\274\010\177\206\276\213g\273=\025^p=\021?C\277\035\224\036>~\216g\276\263\241*?_\031\232>\272\363\230\275\327\t\202\276{v\022>\243)\330\273(\327\003>pO\271=x\334\017\276\260\337\372=G\251\376>\222n\022?/\236s=2\001\247\277\3366\224>\3014\241\276\317{\t\277\3516\215>0\213E>\'\022\354>\204s\256\276-\010\244>\221\322\n>\222\226\232\277\000E\032?n\360\306=\260\025I\277\037}\023?\224T\010=\020\324\256>-\357\303\274\307P\302\275A\271h\276\307\247\227\274K\032\230\275\027\004\214>\375\205\200\277=\035\313>\200U\246\276\027\351N\276\213\225\007?\257\221\257\276\246\n\213=<\032\261:n\224\003?\035\220\272>\201\235/\277\253\336\373=?\033\234\276\374S\023>t\267\225>\030\372\362\276O!\027=q[t>)\006\344=r\362\004?\313|J\276+\205\340>b\203\253\275-\023\202=\202\233h>\230\346L\276\311\355\304\276\361\255\026=\203\376 \276\030\323\203>IC\016\275\003\357m\276\036\206~\276m\225\204>\037\200\177>\320\310\030\276\377\220Y\2766\303\241=6\345r=J\033l>)TY\275O\352\251\276\250\010u\276$\000\203=\251\331\026=\023=\216= <\341=r\232\201\276\331\006\227=Y\374\005?\225\244\303\276C\021B\276\r\324\225\276\274\"\002\277\322\330\264>\025\277i=\322\337\t\276\016\n\242>\325\t\255>\223\222\342>f\321\320\275\213\262\021\276\302v\032=[\000\"\277\231\n\320>$\254\254\276v\336\272>\324~3>\255\311 \276\340\'\306>yas>\3637&\276\005\226\316\274a\375T\277\276\277\331>\020]\256\276Y\211\341>\247\240\362\275\373\230\224=R\345\232>\352Q\343>\034\022\031\276\304\205\361\275\317d\262\276\375\332X\275\257/[\277#}\203?\224\264\273\275x\367\316>i\206\204\276[S\014?\000\177\022\276\3773-?nd\340\275\326T\241\276d\236\202\277L\247\001?\264ek=S\000\261>\361\320\013\277xi\373=\004\250\307\275\326\nM?0\362|;\200t\355<\007\357\217\276\300K\315\276\013\316L=x\234A=Fi\214\276\212\363\321\2745[N\275\027)\033?\031\315\324\272\2279\325\274\\\034\177\274~G\263\2763\353z;\257\206f\275\347\216\254\275\361P~\273DkW\272?{>>1\213\210\273_\246A\275%nW\275\375\335m\275\016eK\274\316u}\273#[?\273\256\213\334\267\366\213\204\265\225\246\307\267\331\254!\273\301\0041\271\021\202=<\330e_\271\224=\237\270\302$\243\271R\247\007\274\025`\003\270Pn\022\267\207\271\210\274\3006\220<\207P\307\274\235\"\225\272\246\316\274\266*\221\021=\033\271>\272\224N\'\274\305\340\r\272\241\241\t;\215\032=\274\321\210(<\246\004^\275\257 \321\272\025\252O\270\3271.>K\256\216\272:g\350\275\356I\316\2750\t\013=\202@S\276!\272\017=\331\241\316\274=\211:=\361\026%\275\376\220\224>J\214S\274\024\345\235\274\2160\232\274\313OQ=\250\272\360\276C. \276\233\370\355>\336\376\246=\253L\265\276\353\032*>\264T>\276\301\374\327>\360c\223>\016\305\246\275@:H\277\"!\327\276\024\275\033?\\\310\321\274\362\303\241<boH>~\325\206=\351\370\006>\303)\032>V4\032\276@6\206\276\2356\352\276%\037\252>\225V\264\275i\217\204>O\023{\275\254\347\254\275\265u\271>\370x\n?=FS\276<\365\353=\237e\304\276\266\007\340>\302\2349\2753y\t\275\221\237;\274\206\261\034\277\207hK>\261\\@>\031e\320<\227\234\347\275N 2\2764\325\266>E\003\341=?\335\030>x\005\342\275#\203\320\276\003\323\313\274\310\270\255>\346\215f\276\362\346\"\276n\315.\275)\230\224>\342$\030>\342\250\276>\037\370\270\276|\325\307\276\207]\345<t\257\247\275\001\355D\277F\351Q=?C\370\275\354j\236>\205%\274>\315_\252>q\323+\276\254(\324;=\014\225=\t\037\025>\313\225,\277v\316\315=\003\367\214\276G\221\360>\3213\326<uv\366>p7\031\277>\342\250>d\270\257\273\2302\225>\231\377\027>\016\223\371\275y\262Z>\257\260\331>\252\035@=}\232\356=RM\226\277\306\300y>_XB\276\352\236\200\2764\331\201>\245\227x>\306\213\005\275\251\'\216\276F\036T\274\372\237*\275\343\337\020\277\360~\020?\035+\370==\307Z\2779\030\023?}\3725=\220\\A>\007\264\331=\256\374\210\275}\325F\276<\216\030\276\203p\223>\027\024\200=uQ=\277\204\356\352>\310\350R\2764\r\347<]Mb>mC\002\276~#<=\336\331\037\276F\271<>.\300\224>,\304e\277\031\036\210>/@\254\274\037\3517\275\314<\346>\274\277\301\276\264\231u>\220\027\025=r\325\022\275\330\232\305>a\202\036\276\336n\023\276\021\341\231\276B\364\n>\201a#?\332\004\330\276\301r\347\276\001\221\240>\340\352\225=\000\t\240>\373\021\205\275?\'1\277\021\211Z>\316\023\345<\034/c>X\227s\276L\225\367\275\242i\017?\006\312\361\275\002mW>#.W\276.@\n\277\221Pp\275\034\237\010\276\255F\001?\245\226\271\276.j@\275{\021Y?\\\246\007\273\311\261i:\351S\244=-\274\230\276 \203\213=\244\354\245\276\302B\203>\020\035\n=\230}P\276\334\202\314>\243\221\214\276\260z\206>\2024\205>\265\032[\276\363\255\026\276\0061:=\354\022+=\225\375?\276\361\304\037>\262\221\014=\311p\030\276\274\223#>\032/\357=\3558\014\276\246\000\227\275\321>\272\276=XW>\324\370\013>I\370\257>\177\212\252>Q\320\001\277+\332q\275\336\030\315>\037\233\275\275\206\027j>\337\276e\276\341\312\223\2759\nB<\352\017\000?DA\301>\022\230\003\277I\226\035\277\375\246\024?\253\321/\275\3049\353>\360\005\257\273{`\222\276\203\255h\276\233M\274>\237\304\244<\310\340\204\276.i\033\277o\304\234=tK<\275\265^5?\273\373\001\275\022\353\335\275\253!\270\276\n\211\253\275\302a\300\275\267\216\326=4c*\276\245\2403\274\200\204\006\274u \372>^5\225\2746\'\350\275N\351Z\275]\370u\276\265\341+\2743\344T\2743*\251\274\301\027\226\271\324?\031\270\313\362\217<M\365@\273\220\272\250\273\250\362\036\273SZ\301\273\331E\036\271N\377$\272\354\037N\270?\224!\267&\335\277\264\324\336\002\267\330\004T\272|\306\202\270\241\303q;s\215\222\270\336\350\3178w\301\337\270\226n2\273\2503\313\267\325)~\266\274\345\025\275Y\303#=Yx\001\267\227\031\346\272R\013\016\266\355\206&\270-\347\310\272%9\242\267\342c\331\272\355JT<\010E\235\274\344x6=\035\037\322<\337\363\003\274t\360\234\2718S\034=0\270\003\2734\207\270\275~\310\375\275<\264\315;\302\256\335<\246\254\331<\3173\307=\026\362\373\274\031\361\336\275K\352\017>\301__\274\353_\250\274\366y,>z\315\300\273\327\355\005>\214G\202=\365\253\216>\347\315\217\275%\026\010\277\207\327\027=:\2452\276\027&\324=E\030\347>\337\321\025\276\240\244\261>;\277/\275\0147_>\245l\252\276O>\270\275c\273\017\276\346\321\272\276v\321\316=\300\324\023\276\2456\201\276\246\330\324>8\310\030=\361D\213>I9\377\275\304cV>\214\231\307\275\227\231\312\276?\033\244=\236\255\350>\002\214&\276\256d\322\275\355\351\203\276\255\221\332>\344\334\200\276V\024\243>\222\351\026\276\355\203\231\276\321\261\264<\026\266\250>n\205\000\275\377\351\341\275\335\314\254\276\312X\246>\371z\263=^4i>\270\035\244\276 \r}\276\260\323\235=\013-\266>cH\254\2760\202\025=\000\203\215\276\272\t\364>\274\202#>Nx\312=\201\321\302\276\031\022\210\275\364\221\212\275P\345\311>\260k\023\277\222g\260=\242Dc\2763\034\334>\201\274Z=\325\3245>J\353M\276\r15\276\016V\r=@\212\021=\211\233 \276\206\305\273\275\204\265F\275#\r\000?\246\242M<\003B\302>\036\032\032\277\327j\263\275\036Uq=\266\277\221\275\207\344\202>PO\275\275\215\304\214=\010Rp>\347\t\014>\213i\222>\360\026N\277\234*\331=E\026\364\275\271~.\277\020\245\343>\203P_>\255\320/\275xip\276\361)F\275\245\275b> bu\276\324\027\327>\246\377h\275\346D\202\277\345lA?\354 \000>\233\355{>\377k\365=]\220\345\276\215Z\246>t^\326\276\246\265\004?M\375Q\276H52\277v\"`\273 :9=\322\034q>g\372\204>\371\353\220\276\217.\003=6\231E>\342\r\003\275{.\177>\003\221\022\277kc\324>\243G[<\006\240\305\275\273\356\036?k\021\327\275\222 \225\275g.\234\276E5\000\276\003\213i>\327\266\265\276b\033\035\277\211\036a\276\006IV\275\353\344\036?%\347\236\276\2001S<wu9?\032GS\276\247\203\314>j\315A\274\370{.\277\323\227v\2764@a\276+\361\021>u\344\265>$\363\356\275I\316/?w*\037<\322\362\234= \334[\275c\222\"\277\035\335U\274~lH>\356i\220>\320\217\322\274\033\020Z\275m\345\214>\207^\245\275!3\336=\031\373\267>v\020\337\276\037K\302\276\002\363\330>\320\306!\276\274}$\276\340\217\364=\252\357\346>\346\005\236\276\203\010\266=\251|\206=~\035g\276\231\252B\276\033\227\270>2I\004\276.\232j;~\2652>\351\377\262>tg\240\276\367\327\303\275\354\244\034>J\2145\276I\351\351\276\206\272\240>\213\004\245>\200k5\276\324}\234\275W\030\003?r\2659\276\204\305m\276\027d\301>&H\353\275\322\214\372\275fr\266>\177I\335\275\261`\032>h\235\n>\352\"K>\325\204\324\276I\232\352\276^\003\353>\321nz\275\22162?t\354Q>U\354\036\277\321I1>=rl>\276\304\323\275\360\020\354\276\332\215\004\277\207\031\'<A\223\014\275\243:A?\317\310\263\275\201dz\276\220\tQ\276\315\307:>KIt\276<b\004=T{.\276a\236\241\274\340\030[\274\354\177\350>\342\255\245\274\303NQ=\267Z\263\275J\232a\276o{b\275\332\254\357\274\222qs\275\236\230L\273@6\260\272\332\255\240=R}%\272\007\n\002\274\006\302\032\275\336\243\216\274<\020\026\272\377\004R\273\324[\323\273\356\002\304\266\314\267P\264l\3437\263\202\215\303\266\274\273)\270\2049\023\272\346\257;\265\020\3009:\352k\346\267\342K\213\2704\006V\270\r\266\3357\245[\224\2746\306\273<\235[\265\266$os\272=\356\377\267\357\361\314\272\224\034`\272\341\002\270\272\344)\021\274\351\246$<\014\024\230:\334=\337=\005\362\367\273p4\006\275#\254L\273\273>\273\273\217\253\274\273\322 g\275\035\356\246\275-{\023\273\263%\276>`c<>wU\326\275\265%]\274j[\037\276\241/\320\275\217\327\017\274E\367\262\275\243(\212>N\017\237\274\376\210\352>\351\217\335>\022k\244\276X2\271\275\265\203\006\277\305\356\n\275\364lw\276G\r\222=\215 \n?\327\200-\276\251\264R>g\\\211>\037gN\276r?\026\2766\006\373=E\212W\276\272N\347\276\337r3=\240\231\212>Yb\300\276\007\221\360>#\313\005\276\2233B=\177\0029\276\021<\277>\220m\320\275}$F\276\217k7\276\272\3318>F\311\242\276\366j\275=U\277\245\276\233\347\323>U\021\034\2778\334\334>\\\265[>\265H.=\324\017\376\275\002J\325>\0056`\276Wcr\276N\216\013\277\331\312\307>\377\347z\276\024\246\224>\335\345\313\275\001w\277\274\202\023\213>\311\365\242>b\035\331\274l~w>\030Y\222\274\354\241H>\225\373\005\277ge\246>\310\311!\276Z\0356\275\327\023\237\276}\225I>\212\324\007\276\002]H>\377\302\335\275\202\271\277\2756\357\010\276\010[\310>\301\213\n\277\r\227e>Rc\271:\251H\276=\016\372\364\275\324\022c>Zc\357\274-\334\256\275\t\0041\276\354\201^?\265\nh\277\014@\256<\230\001\336=a\335\226\276\020\374\223\276X\346\202>F\216\277<\026p\022>}[\204\275r0\265\274\375\362\'\276\245%\016?\014J\022\276R\315q\277\227\276\335>\301\315\354>)}\352>\272\331\036<~ \020\276\357&+=]\005\310\275\224\261\213=o\244\224\276\214\3062\2773\tI?\225\023\037>\026\006\312;/\357\331>\256\327\305\276\366(Q>w\337\030\277\264I\251=\370\254\270<\373w\317\276q\2336\276\250\"\023\276\025\366+\276#]\031?m\024\277\275Zs\347=\022\200Y>\022~\200=\252\270\241:/0\264\276\215\301p=Bli>\005;\347\276@L\335>6\210\230\276\260[\311<\001m\227<\224\343\251=PT\203>\365\362\275\273\364\352\203\277\311\271\356>\021\240\361\275b\367\262>K\031\020\276\257\312\217\276\316Z\316>Z\303\341=O\315|>\305T\257<\354\0238\2777u\223\272\233x\312>\004\356W>H\234X\276\303! >9\257\000>@\206F\276\301\377\\>\301\223\365<;C\t\277\0061.\275I\352\334>\330\374\004>\344\354z=\"\213\217> d\270>?\202\006\277czA\276\207v\266>x\214\245\276\322\337V\276\345\227E>b@\275>\010\2569>\252k\232\275\375+F>\256\311\031\277\256\023\255\275\330\001/>HMD\276%H\351>=\366l=IBQ>>\004\243\275\300\354\212=\331M\232>\n\373!\277r4\265\276\301\233,>\004\nQ\276\360\037\212>\032\326\261>6\220\n\276mR\200>\206\333\006\276|+\267\275,o\325\276\220\014q\2756`\016>&\235<\2768\306\220>\264\270\027?]0\221\276\332\027T>\361\354\233\275Ro(\276<\325$<\021\364\005\277\234[\223=\235dE\275{x\"?sM\367>+\177\305\276\336\353 <\377F*>\352\244=\276\365\000\214\276;@\362\276\365\325\365\2753B\302\275\250\004\235?c\373\032\276\251\365-\276\0023Y\276\262\014\220=9\230k\276F\325\037\276\243\214&\276\000\247e\275\002Z,\275\374f:?\344W\273\2741O\010\276\330\023\021\276\225\210=\276\'j\034\275q\273\214\275b3%\275\n\024;\273\242s\264\272\310\326\006>4\346\232\272\211\331\306\273\262A\217\275<d7\2753\014D\273\\`\r\273\036\270\252\271\000\000\000\000\000\000\000\000\000\000\000\000\000\000\000\000\000\000\000\000\000\000\000\000\000\000\000\000\000\000\000\000\000\000\000\000\000\000\000\000\205L\033\271\304\034\3469\364F\340\273\223\'\034<*7\356\266\244\227\207\272\2513\315\267$\221\t\271kw\255\2722i\357\271\222\351\325\274\266\212O\270\004\022\235=\273R\263=\315I&<\252\302K\275KG\272\273\177\tO\273\257\270\333\273\371\337\251\275Y1p\275\364[\312\273\321\217\261>\376=\352>\242\325\233\276\262E\360<\234\220\007\276\265\211\324\275\355\221X\275\017\2373\276Y\220!>\\\033-\275\317\347\004?\344;\003?\270\225?\276qW\304=QZ\023\277\355\024\026=\326\317]\276f\334\231\276\344 \332>\264\314\246\276\367\021\241>O\225\330=\213\302\177\276\373\234\230>\032\340\024=!\315\013\2741\356\247\276u\226\211\276\201\276\277>\216|\016\277!)\226>\010\234\033\275\255D\252\275`\377\003?m\242\360=\277+\201\276\253\323\330\275\032\260\207\276;\031\221>|;\360\276.\377\'>\002\371\035=\302\315f>e\270\266\276=I%>\361\232\242\276\276\205\t>\034\321\013>\'v\312=7P\210\276\2027\276=\327\207d\276\030\364k>\234\276\261\276a\033\272>\"\224>\276\362\214\203=\332\3610>\317\304\226>\025\366J\276\337\320$>\t\235#\277\344\321\364=I\217\234\276\206\326\340>\245\274n\276\\l\341>\322\005\240\275\245\374\360>\202\376\355=\340d\337>\027p)\277\2634\006=\3668\370\276\035\220>?\010!4\277J\256\242\275\210}\004>\342 \314=\344NN\276\316\"\224>r\024\367\276\210\037\214\275\234\267\240\276\322\247(?f\213w\276\370\375\265>&\334\302\2756\236\177\275]\355\376=t\034\266>+\211\225\276\227\275\244\2752_\025\277\272x\211=\345[\272<\206i\236>\375K\016>\373\2653\277\271\220\003?\014Q\263>\304\333\230\276\035\366->\312i\020\277\266\0377>\374\255\275=x\326`>\352?\"=\201C&\277Oo\036?@\001>=\030s\340\276\355\360\022?s\235\243\276\245|O>\016L\230=m\203\256=\266\265F\276\320\345\315\276\037\346==\342\372T>\221\343\375\276\343\022\300>=\212\212\275\\9\211=\347l\261=0\375\025\276\345t\250>Gb\205\275\013}\325\276@\337P=F\037\251=\355\020\221>\346&;=\210\026\307\275\272\322\001\276\010\215\213>\306\023\356\274\322\233S>\331\211U\277,[\246\276\376a\237>\353U\177>\312\206\217>;\301\325=\006/\231<m\233\323\275`\307\273=2\020h\275@]\305\276\024\234\r\2758\205\350;]\243\273>4\204\262>4\266?>\ns\010>\333\237\372\2761\254\234\275\274\301.>H+\203\276\335\215g\274.+\315>\352+y\276JJ\265=\371\260R>0a\033\276\304\005\313<Hrf\276\005f\223>,\373B\276\340\313\317\275.\367t;\271\t\216<U\212\036<\3401<=\003-\327=};L\275\240\374\002\276z\242\214\275\202_\330\275S\357s\273[\202\250<\3466J>]\366N<4\312\036>\344\2008<\327W\236\275d\014\021\276o:8>\316F^\273\244?\025>FT\227>]8,\276y\317\304\275\310\344\273=6H\230=.\255`\276{\271\231\276t\362\301<\375*6\275\332\323\243\275\257.\006?\356cq\276M\032#>K\336>=\357\024\317\275\r\026\211>\335d\017\277\212\006\r\275\2275Y;\251z\377>(\357\332\275my\253\276\037\201\273=\007\337P>\"9\364=\321\243H=\355\310\372\276\351\000\361\274\320\337\000\276\324I\245?|b\223\276X\307\227\276\273\243\207\276+\004\264=\207\016>=\270~\244\276?w\314\275\300Q\260\274ec\302:B\270\261>\375T\300\274\000E\230\275\222\014V\275\3358\370\275t\206\001=\222\332\211\275Y\225\244\274\242\034\030=L\030\036\2731m1=\270<\226\272;j(\275\n^/\274\315\346\200\274\271M\361\273o\343U\272\364\377\227\272\2029\r\270\370\0218\267\320\363\237\267\211\305o\272A\006\026\274\303O\325\271\227\277\\\266\030\004\031<\230Xb\271.[\272:7\250\027\2706\201\3468\231,\255\271\223\004}:#\035\326\265\263\024\257\271]\330\276\266\342\276\036\267@\371\207\271\005\312\316\270\323\367\264\274\276\017\355\271\345\250\275\273NW\255=\333\315\216;\004a\336\274\254\234\225\273\324\344\255<R\212\356\2735\272/\275\234\376\377\275\211\346\007\274\211\333#>\362\224)?\353\255\"\276(+\276<\306\246\256\275gz\"\275N\201)\276B\252\206\276\314\216\217=yA\315\275h\321\021?\274t\224>\366\031\026<\001|\326>G\314\334\276\202\334\314\275\237\321\264\276\n\002\277\276Y}\304<\231\\\316\276\203\0234?}e\321>Z4\213\275\230\242}>\272{\245\2766#\216\275\224\220\264\275\274R\335\2768\354\360=\\\177J\277*\010D>e\377\226>\332\037\324\275\233\035\014?I\201\257=1\321\341\276b,\036>\351\276d\275! \360<\245\036\001\277AZ\002?\006\262\'\276\"f\006>.\206&>\2223\214>\337(\266\276\346\227T\275\267\336\370\274\314^\310>\317\273\215\275\032\330\003=\007\303(\275\361\344\030>\037w\256\275\203\303\266=\324\223\204\276 O\226\273\252\325O\276,\267\276>y~\235\274\'\353v\275\302\266\327\276\314\324B>\2073\234\276|O\274>\317$\225\276\222y\240>tL\026\276\304w\332>e\235\206\2766Q\200>\177k\315\276\230\002\273\276[\351U\276$\334\204>q\216\261\276q\005\206>\003\345\305>\251D\321=D\232e\276\315\357\256=\223\365\326\276\002:\260\275aC\001\276\356\334\276=\254H\212\275\356\225\304>a\253\204>\325\037\252\2765n7\275\336\267\310>\306)\037\277\204<\216>5t\005\2760\212U??\177\215\276\372-\213>=\233\275\2763r2\277\033[.=3\346\262>\307\225\241\276?\253\314>\367\354\223\275\202\014\002?\271e\316=\330ke\274\315m\232\276\007\247\002\277\014\231\200>gP&>\256\232r\276S\261\255>\206\231\210=\370\026\031\274VX\036\276\222\037\027\276\002\020u>\3171\t\276\336\243\271\276\244\251\341\275C\000\237>A03>w1\273\273\"\225\347=\374\253\021\276\264\217!\273\307`\">\252&\320<yE\037\277\271\026\216=\003;\017?G1\240>J\345\375<\001\005x>m\377E\276(\031\234\276\'\260\365\275\026$\253\274\252G\001\276~\260\215>\374\210N>\202\336q\276t\325\017>fg\217>v\321\275\275@^\230\276\310\\\000\276\246\315\357\274\362\300\376=%Gm=\204\314\335=]\222\\\275\251\364X\276p\200\217>*g\313\275\215B/\275\035\001\t\276\267A\274\275\317v\021\274\306h!>\371\027\036>#\014\017\276:g\307=\315\002\014\274F\261\024\275_\236\206\274\240^\334\275p\'\215\276L\001\346=\t\306\205<\013\244h=\253>\031=\031LX<\017\324\002\275\302= \274\000\227\232=\310\252\300;\206p1\276\014\357\n=\260\2643>\007\344\315>&\304\030>\323\344\016=\254\334\t=\233\263\355\275\361~\264\276\272\344?\276\276\204\205>\302\366g\275\261S\032>\331H\357>\264=\323\276\034\305\356=\366\027I\274k\007J\276\301\375\252<\227\317\254\276\237p\010>\335\331t\275\354=\036?\026W\026>f:\225\276\375\007\200>\311\177\314=\232P\n\277\276\221G>\206,\r\277A\247P\275\316\213g=\343(}?\316f\254\276_\276\231\276\010\020\210>\326K\024>q\273\214\276.^\230\275\207k\326\276\334\217\035\275#N\226=\232k_?G\275<\276\232\237\217\276\332k(\276\263\315\326=w\215\232\274\r\344\205\276\261\252\322\275Z+\201\274\024h\016=\361\351\317=\355u\241\274\032^\307\274\372b4\275\201\350\004\275;\363/=s\310\034\275\003\334\230\273\3255/\274\247\013\010\267\210\030m=\002\216P\271\021L\301\267s\365\323\274\n\335\246\274\014\177Y\267D(\220\271\357X\341\271\267\347\035\260P\216\2558\253Pc\270;`\254\266\356\360\302\261W\014\224\263\324fd\264^\222,\265\210`\271\267r)\324\264,\010*<DG\3459\010\347N\273Y?\346\271x\316\221\274\207\267\025\272\372\364C\272(\363\001=\234|\317\272\366u\225\274\032\323\006\274\223\231G\272Z\303\253\273\226uC=\271>\001<\247\211\245\274\031\212\230\273\205\267\274<g\221D\274\320\265\341\274\316G\321\275\005\021r\274\r a\275*k*?|\362\262=\277M8=\227\346\262\275L\315\341\2752\320i\276\267\001M\276\306\017\273\273)\r1\276W\260\242>\216\374\261>^\341I\275`[\344>\346@f\276\363\273H\275\346O\217\276\032\321\250\276$d\240<\013-!\277\317\313 >\331!\035?+\221\014>\255!->\363Q\203\276B\016\'\276\312\220W>k\036\204\276>\235V>\363\035\260\276\300v\232=\336^\244=I\264\226\274\304\371\216>\271\357;=;,\253\276\037\265\375=I\316\360\275u?/>\242d\325=\334M\330>ik\362\275\307_\221\275\232i\014\275\010\022Q>\313?\010\277\215\324\021\276\317\026s\273\224`y>\200\2649\275\240\232a>t\326W\275$:\213\276_e\246>\232\351\267\275\265\357\203\276\201\347\344=\t\216;\276\306\322(=\007[\345=:\273\313>\014R\337;\374[\347\276\334o\367\2749Y\245>\201\262\220\276\006\203\232>\320\377\325\276\035|\216>\221\014\014\276\n\352\353>CW\033\275\000\365\021\277\177\033\246=j\017\361>K\005!\277\025\231\232>\346]`\276\367\340\341>\301=%\276\2742L>\023\016\204\2761\314&\275\310:j<\245\203>?\316\303\223\276|\310h\276\205\244\330\276\273H\241>\333\021+\276x\025.>\210\346\210\276\326\345\021\277^\252\200=1\274)?\213\265\334\275\"v\302\274\020\230\231\275\344p$\276\232\034\212>q\347\000?\264\371\261\275P\242[\276\356\004\214=\343\216G>\251C\026\276>Y,\276\267\334\204\276At\245\276UEX\276\327\305\333=\2101-=\213\321\232>A\255\022\275t!\324>2d1>:\2770\276\305\357\227\276Y\2225\276\255s\030=\240\347\225>\010uo=I\0006\275E\307\033>\340;\210>\321)/\2764S\252\275zP\251\276\tdj\276\270\302\202>,\247\262>\260pG>v\342\206\275\307\303\354\275v+\207>\033#\362\276\360\212\200\274\227\n(\276\314\002\t=\n\032\232\275\267\321\247>\n\261\327>\003\207P\276\320UV\276\220\273\201>\251|\275\276\177\213\021>\021\262\243\276\320|\022<\254\307\274=?\020\027>\372\265~> *2\276P\201\031\274F\236\333=\010\352\363\276RT^>\315\335%\276\n\353f\276\371\2213>\356\030U\275\323O@>t\267\237\276\217\300(\275j\252g>\254<]\275\016wQ=\263\3264=\022^\'<}v\202=_\233w>\353\\\273\274K\261\214\2765F\220>\306\r\266\273\344\266\214\276\014Q\366\274\312\337-<v;%=\320L\240;\270\330\250>\270\300\302>\010\221\024\275\242C\'>Ne9>\021\354\014\277^\023o\276\256\"\217\276B\207\262>\243E\017\275+J\344>8(\320=o\256$\277\255\334\320=`\220\200>\350\245\027\277\035\033\275>i,\262\276\020#h=\372\241\2069b\361\303>^49>\3677\363\276\0176\251>\3155\026>\177\315\037\277\376\314\211>\001\374\210\276\240%}=Y#\367=\230\013\336>/\2323\276\254\003\236\276\237\253\236>\3717^<\264\376\030\276\036;\354\275\255mC\276\006\264\202\275\230\226\007>\342F;?\357\353\271\275I\016\025\276\347\347@\275\304I\031\276C\321X\275\256\275|\276\334\273\211\275\245\341\202\274r\371\013=\ndr>;\246d\274\227\237e\273\017\000\247\275?\032\243\2755\006n\273\355\264R\2755\226\255\274\265\343T\273\304\262\2778\264^\307<+y\243\270F\354\375\263\367\303\013\274\206JL\274\330\250\020\265zr\325\27093H\264\000\000\000\000\000\000\000\000\000\000\000\000\000\000\000\000\000\000\000\000\000\000\000\000\000\000\000\000\000\000\000\000\000\000\000\000\000\000\000\000\013+\326<\3767\370\267f\216\344\273\376\353\253\272S\266\365\270\334\307C\272\2434\366\272\264\021\004\271\026ug\273;9;\274\245\'/\274V\224\004\274\220\201r=\303\352\021=\336\325.<\311)\010\274c\327\255\2734y\211\274n\017\271\274\013)\n\275\254\245\324\275\230\271\371\274\036\246 >\\\356\t?E\023\014\273\350\304\233=\342*\217\275\377\1771\276\313\261Y\276\232\2777\276\222\341\302=W\262\271\275\214\355\316>O\323\027?\335\024\331\275I\341\312=\260\274f\276\301\233\262\276\357\"\200\276\013k.\276\346\n\236>\000\356\004\277\222%\313>\025\331\216>6>\206\276\235\373\346>\333\036\225\276U\020\303\276FL\227\275\336]\274=\244\tq>\\5\216\275oR\301>\233\240\373>xJ\205\276\355\330Z>\270\315H\276u\206\016\277*Rs\274\n\375a\276I\311:>xZ\221=\240\2623?YM}>\365\314\007\277\237V\177\276C\'\241>\344\n\026\277w\000\306>3\312\t\277\357\302p>\326$\221>zf\237>*\377W>\020\252)\277\317\013\211>\336\020\313\275\3779\205\276Z\220+\274\021I\215\276P\263b>@\203\010>\276\024\261>\234V\322>\337/\323\276X\312\202>\331\204\211>\321\'\331\276j#L\276\000v\031\277)\355\220>M8{>\321\201\257>\366(\021\275-\214\371\276\200\335Y<\367\235\014?\302*\307\276tJQ>\222\3579\277\253\371\316>\250\017\231>\nj\006?U\336\322\275\263\021\376\275\265\211\350=\r\"\232>\346D\324\276\222Jh\276\214=F\277=1\n?\357\'D>\300\212\245>\340)\014\277\250\227o\276\304C\240<\277\232\027?\344\017\017\276\324\253\362\273\010\344<\27748(>\356l\253\275\265\226\342=*\003m\275\346\034\335\276\311\302\350=\"\264H>\245\326\336<\207z\004>\230\273+\276!\021\034\275\376\037\332<|-\327\275A\301(>G(\366\275\017\n\005\276\200:E?\037\257\266=#\254\300\276z\031\220\276\366\341\022\275\2652/\275\263\207\t>Sw\220\274A\030\336\274\272\271\031;F\346\300>\222\313\236\276_KO>Z\213\220\276\217\254\034\276\255!\267>; <=\273\265\021>\272\301C>\304F\n>\337\267>>]\330\001\277\204\363\240\276\240\225\253\275\223\243\006\273\0141\300>\257\354\035\276[\267_>vQ\225=\245d\203>\302\341\253=Q\260$\277|\311]\275s@\035\276\2457j\275\326x\372>;6\006>\223\276\304>\304\300_\2759Zk>m\022\236>\251\265p\277\372q\342\275\031\313\302\276X\235u\275y\233\350>\024\226\262>T~\030>?\335\302\276\246\022!>\254\234\250<\316\317\024\277H\275\377\2737P\315\275\022PV\275\270\tk>\250.\232>\014\371\263>\241\307v\276\211\302v\274\2207\242>J{Q\277\221\2505>\361\273\177\276}\243\213=d\300A=\000\234\317>\253\3261>\366\212\235\275i\035\314=\304\240\350=\265\302D\277j\260\256>\210\237\316\276\321yU>\313\375\306\274\365\026\232>\336\204\001=\224p\314\276W\001\"?J^\000\276(\020/\277\214\317\271>,\246\233\276m\257;\275\177\345\007\275\334\220\217>\240m7>6h\310\276Fv2>\375U\261=r\260\312\276\360t[>\225\032\214\275\376=\215\274-\311\205\272\037K\024?C\002\005\276\275\230]\276@\235\342=\217g\220\275\271l\214\275pZ\202\276\016\346\213=\371\r]\275PJ\273<\227\241\247>o&@\275\226\367#\2762\231\n>f\315g\275[\251\232\275\007\307.\276\227\034\240=d\n\372\272O\255\t=.\017f=\342\357*\271\275E\210\272\2041#\274.\251\205\274\321\342\027\273\027\0050\275Nkw\274\270\367\205\270\341@\2739\274\342\232\271\351\235\311\270\254-o\2708s\326:\327\214B\266g\322\262\267\372A\267\272\004.u\270n\2634\262\240\'H9\\\240\307\270\373\351\016\270\266A\301\264s\216/\265\334\270y\265\356\247*\267\332(C\270h\343F\266IU\027\270bw08i\374J:\276\234p9\277I\235\265\377D\322\271Nk\321\267}\210\215\271\275\257_\270\022\364\207\271j\265\016\275]qC\274X\313\371=^i\313=n\237\313\272\347Z\004\275/\217\256\273\323\263\256\275\345\001\264\274F\312\345\274\334o\220\275N\316\274\273\261\213\211>\202y\270>\033\355\267\27597\327=\202\177f\275\273_n\276<;\022\276TU\013\276\034\223f\275.\n\010>\301\315\217>\0342\257>\003\t\031\276\202\226\255>\022\313r\276\214\313\307\276\330\002\270\275\010$0\276\275\221G>\013\001\000?\207\202]>\374F\333\274`\350\005\276\037\302\261=\354\356\263\276\200\003\342\276\216\000E\275\224p\3719\022~>>\263P\302>\003\252\212>\266=\230>\025r\372\276\325\231.>\341\223\334\276j\241\r\277ya\210>\241u\307\275)\371\372=\325\253\t>\\\013=>m\225\254>Y\273\002\277\257g\310>\371\036\026\275p\353\037\277B\215\227>\315\222\226\276\210\311\360\275\017\001e>\tM\030\276\221\377\240>\233\210\001=R\331\311=\327\357s>7\023\220\276\276,\354\275\274Oy\276@,\220=\016\356\340<\'\352\242>Z|\265\276\366S\262\275z\037D>~gs>\000\220\356\276\261\025\213>2wV\276k\302\210>\326\247\256>\271\312S>\274N\322\275\000\214|\276\306\231\002=\271aa>\\1c\276\225\274p\276\224\202\205\276d\334\256>\233\337\017\276\216;\033>\322?\370\275\344N\023\275<\254\206>N\313\234>\251\224\213\276\250\315\200\274\016\346\363\276h\252\276>\334\202\"\276$\203\361\275\342\327\264\274\350P\275\275^\301\000>j\022\'?\032\274\235\275\204\375\207\276\230~\325\276&!\320=p\2742\276\'ZV>\260<i<\255j\203\2763\334\023=\347X ?\352J\200\276\362F\005>\222;\337\276\227[\221\275\017\273\224>\310\313W>D<\022\276DjD\276\226\345\310=)\3301?R\325\316\276N\323\330\274\365|\352\276gX\"\275\212\354\'>\316\270D\275\345\\\321= \276\004>\365P*=\370L\236>W\333=\276Hj\233\275k\230\313\276$\013U<]\037S\275\333\223G>\306\203V>e\300z\276\2502\272\275\262\036\235>\177&?\274\"\320?\276\031@\r\276\246\363s\2768\242#=\270K\325>i\374O\275M\354\200<\221MA>\3122\373>s\355\321\276\313$J;{U\351\276\001\227E\276\013m\006?\031\221\266>\216\316S>\315\246_\276\035Zh\273\232\337\303>\333,\374\276K\202\246\275\326\364\366\276\374\"\255\276_\271\236>\035\304\n?\t\374\266>g\334\030\2753\2173\275\302\032D>7\365\014\2773\327`\275q\225\300\276w\337$\276K\250\000?\333 :=\250h\254\275\000\200\207\275\233\210\225>Bh\375=\302m\032\277\375\200K>\365\344}\276O\032\024<\035z\253>\003\tY>i*!\276o\000^<w\010\347> A5\275\023Y<\277\230\027F5#\241\252\275\003[\301=\340\t^\276\232\006\346>\327\301\361\274\204\037\010\276\265J\000?\3650\263=4d)\277\2770H>\355\334\222\276\346\345M=\347\266 \276\307\241 ?\327\0107\276\321\302\202\275\325\231\214>\3552\023\275\217\251\323\276d9]\275]\215J\275`U\221\275\030}D=o\371\331>\322\257D\276\251\r\037\276\'\254G>ZP\353\274\026\263\203\275\240\365\243\276|\331&>\376W\010\275\315\330\274;\226\353J>\251\363\016\275T\251\017\276\013\014W>\201\363{\275+/ \275\212\311\351\275#\267\030<\213\374\026=\325\247\r:\017\266\221<\321\030k\273\337s\\\273\355\024\274;\357\324\256\273[U\230\273\030\307K\274\355@\001\275\0279\0206\022\023\201\253\331\277(\265\345\005\220\263\220\363Q\260\007\227\257\264mv\310\262\260i\020\260+\007\223\265\272\227\347\261\323\r/\262d\346A9Yc\301\270\252r\n\270\2477\273\264\377\021*\265\023\353q\265\256R%\267\223\017=\270N\254@\266mB\204\264\375hp8\005\332\375\267\274\\\2627\231\335\372\263\307\356?\267\216-\234\264yw\205\267\235\367x\267\035\272\267\266\014\211\300\273\323f*\274\365\324\274=J\324\310=\262\001\223\271P\036\241\274dXS\271b\232\352\275[\367B\274\330X\340\274P\036\254\275\320\313J\274{\373d>\315\242\233>3|\305\275\212\356==IA\346\274Bz}\276\216\200&\275\334\276\204\275b|\251\276\031\330L>kH\221>J\232k>\302\326\024\276\242I\250>\374\217\352\275pu\236\276l|\274\274\031\006\364\275L*\244\274#\374\202?\016\374P>\272L\213\274\274kk\276JE\030\276\334\374c\276kM \276E\325\215\275l\003\272\276\351\362\235<\245%\034?\334\265\371>\222\0353>Vy\215\276\306\251\214\276\177]\346\276IkI\276\334\271\273=\265N>\276\215\302\031=?B\237=\354\230\323>\331\n/>N\341\250\276\337\275\232\274\341\302\220\276\365D\267=\241\030\r>\3304\227\276\345\367S>\000B\227=\024\300\314>\241\321J\275^8w\276%\023\313=\351\276\347\275\233:\274\275\032 R\276\t2\241\275\373\032R>\'\246\032>\364 \275>a\273h<\233\213\271\276O\271\342=\202\004\025>\307\303\231\276\330\344\021\276\352kC\276UPN>.\343\n\276\202z\200=o\200\327<\031\312Y\276\016\333\226\275\231\007N>M\276\316\275\364x\250<\276h.<\267P0>a\304\343\276\020\2238>\264\324\\>\232\031%\276\270V\372=\362\221\001=<\016\245\276\001\'y>\n\274\026\275\250\262!>\302|/\277/\213\347=\030\334y\275\337\006j\276\023\0363>\236\035\262>\306\013(=l\241\004>.\325/<\032,(?2\241\330\276\344\031Y<\356C\000\2763\031\r\276\300\367\205>\205x\266>2t\346\276<\204\016>\022\016\225\276\006\307\223=\322\331\323\275*\366\233\275\262\335\302\275-<s\276\211\0162>\254\3704\272\365U\226\275\350L\226>v\242?=\t\260\340=[\006i=\0229\233\275t\\\360=X\274l\276\005\376\233=$v\260>e\013\333\275q\373\242=V\250\275\276\014\247Y=|\224\304;\256\244\301=Pgj=;\2369\276Z\213 >\005\030N>=7\255\275\226\005\340\275a`F\276\353\026\032>\241\373\213>$c\362\274\277\006X>\221\276\315\274\377\214\032;\2674\024=\231[\225\276v\034;=\335\313\276\276\364\202\001\276-\205\017?\017\210\032>\273\004\217<\301J\263\275\205\217y>/\356\243\275]\362\267\276\\]\221<\032\232\254\276\362\341\362\275w#\250>\322}~>\311\326B>+\226\233>AgT>7w\025\275:G\203\276\344\226i\276\241\216#\277\374\320`\276\005\213\304>\256b\247>\350\321]>\325\256\006\275\374\030\373=\273\234,>\007\025\024\277\242(P\2762\334<\276\356\244`\275\017W)=FRW>^R\217\275\373\241\271>h]\275;\262\306\027>\345\2527\277\332\323D> \344\361\275z\203\000>\025\330\\\276,I\321>\372e\316=\027\277\"<\013\262i>\214\020\033\276\225\313\005\277mH\034\274\335\257\325<9\306\314=\243\234\354\275\345\336\225>\271\221\365\275R\316\360\275\305!\251>[\2175\276\247\342\316\276\355\277\360;\305\351P>\304[l\275\036N[\2746m\225>\201\036\031\276\305Y\022\276h\034g>\373&\240\275\373\303w\2752\214\023\276o\336\003>\243c\272\274\352\273\227\273\223\206\330=\017O\030\275\037\027\270\275\344\332\004>\014\201\224\274sz\377\274\375\240B\275\372\231\201<\240\247|;P5\001<\206\231\025\275=j\3108\315\331\272;\272T\032=\263AY\2714&\337\272\370\244\002\274\013[\020\274\002!\2056\230J\356\253\307\304\233\265\277\361\004\264#\315\301\260B\025\"\265\333\n9\263\336M\205\260\332\267\007\266 \307U\262\000\000\000\000\000\000\000\000\000\000\000\000\000\000\000\000\000\000\000\000\000\000\000\000\000\000\000\000\000\000\000\000\000\000\000\000\000\000\000\000\000\000\000\000\000\000\000\000\000\000\000\000\000\000\000\000\000\000\000\000\000\000\000\000\000\000\000\000\000\000\000\000\000\000\000\000\000\000\000\000\302y\200\271\250\262d\271\360M\201;w\230\346=\020\235\032\271\0102]\271\302\334\337\267\366J\265\275\362\256\017\273\272\240\314\274\016\375 \275N\305\232\275\332\026\\\275&\311\272>\227\n\227\274#\206\220=\271\320\032\273\213\204N\276\216W\004\275QhD\274\032\233s\276f2\330\274\235\262);\277\\\314>\240h\236\275\233r\206>\3726\233\274?\320H\275\2268\212\275\321\267?\276\226\331x\276\266s\t?/\271w\275G2\260>\262:\032\276:\332m>\256D\205\275\3301\225=No\300\276\234\020\225\276\353q\321\275\315P\342>\323\240\341\273\333\335\210>\347\212\203\275\010\203\202<Bx!\276\254\311\231>Tj\301\276*4\242\276\207\017$>^\023\254=:\270\345=\013m\227>\016\237\342\274\371\033\200\276m\256\236\276\246\303\344>\341\325S\276*\314\233\276\224\255e>\203\006/\275\335\000/>\216\031\205\273\025\253\242\274Bn9>_F\246\276\346\341\364\276aD\207>\232Y\357<\"\346\235>\356H\260=\364\241\221>\035\364U>}\232\t\275\017\024\343=\236\344\263\276\230\017d\276\'\347\315<\350\027\325\276\222?\307>B;\302\275\226\240x\275\357\213\030>l\274;\274\243\255\321>\373\007\366\2762q\021\2769\233\316\2757Vj\275\330c\264>F\371\226\275\270\301o>\336\336\241>R,\234<\324\217\302=w=\247\276@\277\323\276\3531\214\274,\027>\276\303\231\n>\nc\236>V\375\334=\233\035u\276\024\244 \276\t\350\024>)6%\275\0352\225\276\271\251\r>\225\367\335\275\307\364V>9\210\246\274w\343!\276\276\267\210>\200\220\334\275\037\246\307\275\025\217\227\275%\310\255\276\233\253\346>\302\222\005\276\t\347\231>\231V\225\276\343\374*\2752\255-\276\230\260\037:u\262\021>\010[\255=\246\316K\276%Y\374=\265\273O=\274\252F>\230\001\\>|{\303\275j!\233\274rP\273\275<fH\275C\307u<\344B\224\275#\0264>\\\214\213\276\035*\214\274\250j\242=\026\372X=\232]\303\276\327<F>2\372\213>c\337\246\275\255k\213\276 \036\246>\262X/\276\345\223\025>\233&\253>\224\327\342\275\313\0144=\204\237\322\274\227z\022=\377\260\036\275]\233G\276NR1=\227\317n\276 \372\312\276b\356\r\275)=\211>\372J\260>z\246\213>)\033\256\276\r\204\222=\235d\235\276\252\255\177>P\335\002\276\267\362\353\276\002\306\003=D\357\005?\315\2032\275Yq]>\336\200\370\275OF\362=\244\215\370\276\004\261|>\311\213\320\274\312E\342\276\006\223\321\275\005x\342>\3615\002>\366\324k>T\001\212=og\214=|\257*\277\330\246\215>\347\254\264\272\351\367O\276\374\203H\276\302\221\010?\276\233\017\274\315n\227>\246W\274\274\240\314+\275)\250+\277\217\373\315=\nsZ>*\002o\2757G$\2766\005\004?\034\313N\276\200\321$\276\301\263\234=\251\343P\275Hs\333\276^T*=\234\340\332>\3208]\275\265X\026\276\2022\261>\254\215\003\276\274\001D\276\315\206P>v\367x\275E\360\324\276\002\207\350=1\023\253>c\036\303\275C\3632\275\2146\246>\203\214\212\275\334\365\023\276AK\r>ec8\275\321\221\350\275\256\327\316\275\243\235\027>:\366y\2743x\014\273\376\032\362=2\240;\275\206\324\222\272\207\242d=3\201&\274\3044\025\275\273\271\031\275q\233\321\274\033Y\026\267\373\211\004=$\272\322\274EH:<\350\263\303;\276\036\267<#\022%\271c\343\244\272\033>\356\274l\240\201\274\000\000\000\000\000\000\000\000\000\000\000\000\000\000\000\000\000\000\000\000\000\000\000\000\000\000\000\000\000\000\000\000\000\000\000\000\000\000\000\000\000\000\000\000\000\000\000\000\000\000\000\000\000\000\000\000\000\000\000\000\000\000\000\000\000\000\000\000\000\000\000\000\000\000\000\000\000\000\000\000\000\000\000\000\000\000\000\000\000\000\000\000\000\000\000\000\000\000\000\000\000\000\000\000\000\000\000\000\000\000\000\000\000\000\000\000\000\000\000\0009?\340\272\203\364\266\266Z/U\273`\213j=\364\354D\267\330\202\322\271\277\272\224\265,\2726\275\224\357\014\271\371\270\351\273\023\026,\273\340\210I\275\024\224\t\276\232\321h>t\334\222\271<W\243=\005\201&\270U\003\277\274[h\232\275\301p\263\274\355\201\227\273\t\257\301\275\025YP\276\364J\307>,\264\357\274\237\350\252\273i\266\002\273\020_\n>\010%{\276\352\326u=[\033\341\275\213\376`=\\\326\253\276\207H\242>\272e\326\274\234\202]\273*.\243\274\013\344\370>\254\337\351\276\227\024\300=\355k\030\276\021{\004=2_\354\276R\247\024?\250.\206\274yX\335\274\356\320\025\275\030\312\003?\240t\356\276h\251\350<iY[\276\031\023\255\275EJ\312\276\315\270\005?C\367\034\274\\0\333=\001\"\321\275\274\244\217>(>}\276\226Q\022>\266z\325\275\033\365j\276$\3277\276\307\031\374==[\016\275\377UO>\227[W\276\025 \001>B\355j>=\030\236=<\312\337\274\336,9\276\355\177$\274\010XX>\342\302\345=\rr\372>Q\245\230\276\006$m\275\035^\217;8\226x\276U(\305\274\302\257\202\276\36692\276c\213\375>\007\373\021=\022\032J>\233s\310\276\341\232t=M\301W;\227\303[=\003\264R\275.\004\241\276\231-\325\275\026\354\315>\2722\220>\276T9>j2\022\277=\364\234\2748*\323>\0242^\276\245\353\260>\360\225\251\276ww\021>\014\033n>ri.\276\241p\205>TA\364\276W\226\200\275\311\364\242>\177\350\203\276\260\316\223>\\H\315\276\023L\025\274\362\246\265>?\345\210\276Hu\365>\252k\000\277\267\020R>\t\226G>\330\016\260\276\340U>>\nC\311\276t\360\272>\2241\326>\036D*\276\250\032\246>\240\031\332\276\242\241\306\275\234\374\177>\252>\354\276\366\224$\275w\325\210\276\274\333b=\377\342e>Q\241\335\275n\'\241>\313\340\235\276YY\026\276\255p\240>\2709\030\275twW\275I\330#\277)\212%<\325\352\250>)\004(=\275\366\217=\2546\351\275U\247K\276\327\336&?\302G\310\275>\022\362\275\255.&\276\257[Q>\275\264h>B\345B\276\357\253\212>\312\324z\275\313\356\217\275\005{\033\276\306sS=\246\376\253\276\204\371v\272!\244\230>V\217\211\276^c\312\274\n\002\224>\216(\264\275\374\323\254\276\t\330\305>\333>\250=\377\330\330\276\037\230\322<\240\364H\274k\0362\276\305K\026>b.\342\273G\034\006\276\304Af\276\210\2646?[\277\260=Z<\332\276\376\2024\275c\361\\\273\340\253\037\275\331\376\001>\\\372\223={\"\210\275\200m\203\276<\237W>\017%\332>+\003\231\276\313$G\275\364G\217>\220e\320;oh\366=C\005\037\274\355\204\241\275\304\221\241\276%\267\\\275\225F\314>M%\007\276\301>\340\2755\341\237=\257\2507\2759N\342<*\336w>#\3229\275\225!\245\276\270\342O\275\300\343\266>t`]\275\217.H\275L\347!>\202O\r\275\031/?\275o\3352>p:\221\274\225y\302\276\006\2632\275\025\303\225>\317i\010\274\t\376\346\274\000N\301>b\026?\275\327\334\262\275\n\014\327=\035=u\273\340\314\030\276\365\231\273\275\2141\212\275\301x\377\271\222\266\032<\312\024L>\367J\007\274\374\217\213<0\026\031\275=b\303\271 \306\210\275\037\307;\275Z\203\210\275\206a\355\263\270\016\037;{\231\001=\270)Y\267\321\356\002\2711O^\272\331Q\037\270,?\001\265\312\002\006\274\005\257\313\274\000\000\000\000\000\000\000\000\000\000\000\000\000\000\000\000\000\000\000\000\000\000\000\000\000\000\000\000\000\000\000\000\000\000\000\000\000\000\000\000\000\000\000\000\000\000\000\000\000\000\000\000\000\000\000\000\000\000\000\000\000\000\000\000\000\000\000\000\000\000\000\000\000\000\000\000\000\000\000\000\000\000\000\000\000\000\000\000\000\000\000\000\000\000\000\000\000\000\000\000\000\000\000\000\000\000\000\000\000\000\000\000\000\000\000\000\000\000\000\000\355\230\205\267\342\350\213\263\362$\002\270\231:\267;u\377e\270s7\245\266$\327U\264\364\301\337\273\320Z\035\272u\320\376:ON\263\270\035R\251\273\271\024\021\275\311\262\177\275\357l\200\270\264\312\247=1\337;\270\345B\036=h\025\264\273\"lB\274\377\353A\2732\321\235\275\233\272\242\275\221t\325\274\022:\314;\341\332\266=\327\'N\272\177A(>b(\t\276\376\207w=\243\302\314\274\234\010#\276tw\346\275\334i\032>\241\025\202\275$Q\030\270\366\226\251\272\356\313\003=8j\207\276\'\336\342>V\205\004\276\004`:\276D#\275\275 \277\333>p\t>\276\253Q\272\274\243\331\210\273\333\306\024\275\007\035$\276Xq\304>0+8\276\206Ef\276\252\333J\276\036\3045?\211O\220\276c\272$\275\254\021\024\274W\023\245<\t\324\025\276\307>\263>AD\214\276\331\252F\276\327\207\331\276\265\235x?Gx\006\277c\031\032\275\311kS\275\341[\313>\250U\212\276\301\201\321>\026\321\316\276\3441\232\276\001\221\010\277\215\036e?+,\250\276AhZ>=i\227\275*p\366>\352!j\276\270[\217>\023a\023\277\332\"3\277\2368\333\276\266\'G?\021{\252\275\203Q\220>\272kp\275\242\302w>\222\236/>\300\233\276>\312\355\030\277\005\267\022\277Fu\351\2763\252\034?\355\371\226\276$\350\332>\227hO\275\207\253\017?\177\037 >\222\005\\>\232\'C\277\366#\245\276U\023\215\276i8]?\311m\006\277J\006\303>\325J\021\275\270F\322>Ea\214\275\035\346\252>\227{1\277\003>\304\276\364<\037\276\014\314(?\021\351u\276$O\307>}v\357\275\342\206\232>\266\242)\275Nl\217>\343o&\277U\375\347\276\026b\256<\205\330\313>_Gx\276\227y\243=\251\224\363\275R\333\207>\266sL>\014\032\000?\037<\027\277\266j\373\276\233B\002>\276\2779>\261\024\203\276h\367\371>\354`\003\276\335?d>\324z\234>\334)\020>\025\310\300\276\307\232\010\277\201\374I=\235\201\245>\264O\330\276\321\325\277>\256G\327\275\200\230\372=\201\252\222>c8\220>\332Q\351\276\031_\255\276\037\255\017\275\373\264}>\030\277\335\276\212\344\307>\330\217\206\275\222J\233=\264\221\264>\255\346\205>\273\371\322\276\351qD\276)\252\216\276\330\333\026>\332\366\254\276\006\255\207>W7_\275Tf\243>\337\211p>\367\364\235>\365\026p\276r_#\2764\224\272\276=\024\202>\243\333\004\277\035\377\212>\224+\013\275\2010\370=\223\361\">>j\001?\202\271\210\276\232Fh\275>\205\215\276\246\364f<\234\212\230\276>hZ>g\276\227\274r+\245\275\252\225\217=\033$3?\263\266N\276\006\364&\274Omr\276\322B\032\276\255:e\276\233\372\241>\025!*\274\276<\222\275\203\342\007\275H5\037?\342\275\254\275\266\353\304\273\026=S\276\033fE\275s\233\330\275\021\374\277>\376\031\365\273tS\257<t\255\\\275y\271\354=\272R\260\274\211\005\267\272~\014\316\275\302\201\354\273\350I\325\275\2256\202>\242\2033\273\322K\237\275-\033|\274k\240\234=e\214_\273W>\t\267p\334\347\2732\031\021\271\236*\201\275\001X\016>\201K\351\271b\304\262\273GA\360\273pIU\275\251k\201\2648gC\267\3241\346<\263\267\275\271\360\210\273\272\311\315\232\267\177\367\305\267\347,\033\273\300\013\346\273\270(\212\274W\'\322\263C\215i\2674\235\t=\247\r\317\265\340\337\n\271\203$H\267\251?\345\267\230\031\243\264\2366\346\273e#\330\274\000\000\000\000\000\000\000\000\000\000\000\000\000\000\000\000\000\000\000\000\000\000\000\000\000\000\000\000\000\000\000\000\000\000\000\000\000\000\000\000\000\000\000\000\000\000\000\000\000\000\000\000\000\000\000\000\000\000\000\000\000\000\000\000\000\000\000\000\000\000\000\000\000\000\000\000\000\000\000\000\000\000\000\000\000\000\000\000\000\000\000\000\000\000\000\000\000\000\000\000\000\000\000\000\000\000\000\000\000\000\000\000\000\000\000\000\000\000\000\000\000\000\000\000\000\000\000\000\000\000\000\000\000\000\000\000\000\000\000\000\000\000\000\000\000\000\000\000\000\000\000\000\000\000\000\000\000\000\000\000\000\000\000\000\000\000\000\000\000\000\000\000\000\000\000\000\000\000\000\000\000\000\000\000\000\000\000\000\000\000\000\000\000\000\000\000\000\000\000\0006\254L\2716PF\272l\245d\272\354y\367:\267\2268<C\313\016\273r\265Q\267\214\004\302\275\257R\"\274N\227\303=\2273\203\273T\013E\273\261T8\273b\'\020=\314\3637<\300Z\361\273iw\353\270t\205[\276\362\350R\275\023nr>\237\226\334\274\"\032\334\273\341Ug\274,\027\201=\251\236\234\275\250\257k\275\326f\302\271\350\2554\276\207i\275\275[\256\306>\361\006R\275\323_8\274\374\024 \275R\022\240=\r\'F\276h\241<\276\244\325\002\272-\343,<\316N\272\274\237\345\323>\371\343\217\275R\316\255\274\000\220?\275\006!\352<4\212\232\276\'\303k\276\340?\271\273\212\366\026>i\341l;\370!\376>\375\275\014\276\t\006$\275#\301I\275\'\247\330\273\243:\366\276\223>\030\276\n<!\274oO\205>\\o\237\275\231\2650?O\211\371\275A\222\005\276\364\275\013\275@\235k=~\004\372\276\2213\035\275\277N;\274\177\303\214>\362\3007\276\005\351+?\363]\251\275\001\223\343\275\245\313\320\275\224\260\255=kv\026\277;\003)>\034c(\274\207\276d>\375\375\321\275\370\350\005?\355\274Q\275\327\201\020\276\321\375]\275\306:F=\002\342\037\277n.\032>]\372&\274W\033\201=\033\370\342\275\200\346:?\325,\353\275\200\333[\276,\321\324\275\026\260h=\246\333.\277\364\306C=\206\342\223\274l\021\360>W$\025\276\217\3524?3;%\276\240\032.\276|\257\244\275.\266\340;\355\017e\277\363{\215<\264\023Z\274\301\306\001?\241\325l\276\261\222\202?\244\302\001\276~\017\307\275O>\301\275Q\017\036=\004wF\277qJ6>V\361\'\274\354x&?\266\312\236\2762\n\014?eW\274\275\352\251\233\275\362~\374\275U\'E>\356r0\277>\233+=\331\321\006\274r\273\312>\310hR\276TW\020?\312j\017\276\'pA\275\261\256\033\276\0342\037>Np\037\277\323.\357\274\014\322\360\273AV\314>s\020\310\275d\263\n?\373\352\271\275\031\276\222\275\355\365\274\275\361\247\254=\271\323 \277\027h\301\275\363v\352\273oi\311>\374m\231\275\256\355\024?\2100\\\274\326#(\275\211\225\002\275^;\021=I%\000\277\204.\010\2749\241\262\273\310\317\233>_\356\336\275\254S\275>\001\331\220\275\267&b\274\364\321#\2752L\303\273\207\272\212\276<_\226=O\242\207\273V8\207<\004\341K\275\311\030\273>\037\227\260\275_\222\327\273\227P=\275\367J\241\273\211\240\023\276W\371\217= \303\355\272\260Y\"\274\347\033\237\274+\357~>\304\2114\275\006g\210\272\354!\212\274P\260Q;\233Y\305\275\315&\357<\227;}\271\3316\305=\214\227\234\273O\005\016=\337;\033\273\220\003\343\266\357,\226\270\036\232\313\271\347\371n\274\213\266\22798\227B\270S\267\302\272\244\216\257\271_\243\233<$\333\373\266\362o\347\257L\256\334\264\230\276~\265\274j?\2739\263\313\270\255\362\230\265\3574\004\271\223,\n\267\261=O;.\345\371\263\222\224\233\261\006O\232\265\222\267\377\263\020\220\000\263\245Z#\263\024\375\260\256(}\2238\2436[\264z\000\220\270\000\000\000\000\000\000\000\000\000\000\000\000\000\000\000\000\000\000\000\000\000\000\000\000\000\000\000\000\000\000\000\000\000\000\000\000\000\000\000\000\000\000\000\000\000\000\000\000\000\000\000\000\000\000\000\000\000\000\000\000\000\000\000\000\000\000\000\000\000\000\000\000\000\000\000\000\000\000\000\000\000\000\000\000\000\000\000\000\000\000\000\000\000\000\000\000\000\000\000\000\000\000\000\000\000\000\000\000\000\000\000\000\000\000\000\000\000\000\000\000\000\000\000\000\000\000\000\000\000\000\000\000\000\000\000\000\000\000\000\000\000\000\000\000\000\000\000\000\000\000\000\000\000\000\000\000\000\000\000\000\000\000\000\000\000\000\000\000\000\000\000\000\000\000\000\000\000\000\000\000\000\000\000\000\000\000\000\000\000\000\000\000\000\000\000\000\000\000\000\000\000\000\000\000\000\000\000\000\000\000\000\000\000\000\000\000\000\000\000\000\000\000\000\000\000\000\000\000\000\000\000\000\000\000\000\000\000\000\000\000\236\037\347\265\210\004\000\266\204a\'\265\"*E\265*\302n\264r\376\325\264\361\242\324\261)\237&9\367\375<\267i\354\024\271x\030\n\270\377\325\241\266|\363j\266R\306\014\266E\230\254\265\013A\005\267\206s\264\263\225\001=:\225v\017\270\251<&\272\234\227_\270{\010\216\266#G\206\267\266r\320\267\27555\274\001\375a\270\221\037\201\265\214\243\364\272\246\316\237\270\200\214W<\274\346\273\270\321\300l\266\014\035\232\270`\237\210\270v\374\200\275\277p\002\272\266H(\267\356\235O\274E\010[\271]\341\234=5`\203\271\0339(\267#\301\353\270\355\262&\271\331\t\204\275\214\016\207\272c\360\205\267\275\351\322;\031\340\261\271U\221u==;\030\272\371\375E\270\364I\322\271A\226\332\272GO\360\274(\235^\272q\244?\267)>.;\273B\223\272\375o\000=\246VK\272i\003\326\273\266\004\t\274\256\206#\274\275\241\212\275F3\206;R\315\022\270J5\237=\033\214\214\274\307\033\353<C\333\262\272\310\344\330\272\233\316I\273\216x\264\273\320i,\275\3304@<\345\225\321\267p\344\243<d$\203\273\200\346\324<\316E\217\273Pt\266\273\323\303\222\272\200\207\221\273\313\020n\275\272\\\016<\372\243<\271\215\026)=\271ZY\274\315\364\027=\247\367\357\273t#\261\273\301\226\262\272f\213\312\273D\234+\275\250c\323\272t\337=\271@)N>\001%1\274>\227\001\276\315I \274\2233\032\273]\037L\272t\264\020\274I\013\035\276\31306\274\215\235\327\271K\365\036>\323\316\320\273\r\301\032=\223\245&\274D\307\214\271\333\031L\272\201*\315\273K\237\224\275.\271\377\273@\261\215\271\212\035\031>QH\276\273A\303:\275\201@\253\273\352\363Y\271\224\030<\272\232-\021\274\230G-\275R\372\335\273w\357\240\271\025J\353=\367\375\207\273\262\315=\275]\235T\273\363\232\030\274W\352\234\272K\276\365\273B\345\021\275\023\037/\274\361p\373\271\350\n.>\376\307\223\273u\177\307\275\032\031`\273\347>\355\274\345_\027\272t\341f\2735P6\275\2239\336\273\021l\337\271O\212Q>\235\022\211\273\005\342\345\275S\2145\273\374y\312\271P{\305\271\340V\036\273J#\331\274\242\370\034\274\327y\337\271\304\267*>\314\000:\273\034\251\370\275\350\253\327\273#\316\213\270\t\220\362\273\372\216\236\272\351\360\257\273\032\246\313\274\206\362\341\270P\333\216=\333YV\273\005\032\253\274\301]\211\274\362\325\243\267\250\330\211\273\273c\267\271y$\327\273<f5\274\007\372R\270\307\275\325<_\220\357\272\326\366q<\021.J\275\210w\025\270\257\341\200\274\322H@\271(\344\231\274G\177\033\274\031[\364\270R\350\240=\375\250\305\272\220Z\210<\t\\9\274\247\221\363\265\360\372B\271\221\"\201\267[S\216\273\312\253\r\273\357_\203\267\236s\347<\000\263\250\271/\033\"\274\000\000\000\000\000\000\000\000\000\000\000\000\000\000\000\000\000\000\000\000\000\000\000\000\000\000\000\000\000\000\000\000\000\000\000\000\000\000\000\000\000\000\000\000\000\000\000\000\000\000\000\000\000\000\000\000\000\000\000\000\000\000\000\000\000\000\000\000\000\000\000\000\000\000\000\000\000\000\000\000\000\000\000\000\000\000\000\000\000\000\000\000\000\000\000\000\000\000\000\000\000\000\000\000\000\000\000\000\000\000\000\000\000\000\000\000\000\000\000\000\000\000\000\000\000\000\000\000\000\000\000\000\000\000\000\000\000\000\000\000\000\000\000\000\000\000\000\000\000\000\000\000\000\000\000\000\000\000\000\000"
      }
    }
  }
}
node {
  name: "bias"
  op: "Const"
  attr {
    key: "dtype"
    value {
      type: DT_FLOAT
    }
  }
  attr {
    key: "value"
    value {
      tensor {
        dtype: DT_FLOAT
        tensor_shape {
          dim {
            size: 10
          }
        }
        tensor_content: "\373\013\220\277a\321n?\363hU>\024\224\003\277h\222\245=l@\037@\367\220\347\276\313R\266?\374\305 \300\372\366\007\277"
      }
    }
  }
}
node {
  name: "MatMul"
  op: "MatMul"
  input: "net_input"
  input: "Weights"
  attr {
    key: "T"
    value {
      type: DT_FLOAT
    }
  }
  attr {
    key: "transpose_a"
    value {
      b: false
    }
  }
  attr {
    key: "transpose_b"
    value {
      b: false
    }
  }
}
node {
  name: "add"
  op: "Add"
  input: "MatMul"
  input: "bias"
  attr {
    key: "T"
    value {
      type: DT_FLOAT
    }
  }
}
node {
  name: "net_output"
  op: "Softmax"
  input: "add"
  attr {
    key: "T"
    value {
      type: DT_FLOAT
    }
  }
}
